{
  "version": "1.0",
  "truncation": null,
  "padding": null,
  "added_tokens": [
    {
      "id": 0,
      "content": "[PAD]",
      "single_word": false,
      "lstrip": false,
      "rstrip": false,
      "normalized": false,
      "special": true
    },
    {
      "id": 1,
      "content": "[UNK]",
      "single_word": false,
      "lstrip": false,
      "rstrip": false,
      "normalized": false,
      "special": true
    },
    {
      "id": 2,
      "content": "[CLS]",
      "single_word": false,
      "lstrip": false,
      "rstrip": false,
      "normalized": false,
      "special": true
    },
    {
      "id": 3,
      "content": "[SEP]",
      "single_word": false,
      "lstrip": false,
      "rstrip": false,
      "normalized": false,
      "special": true
    },
    {
      "id": 4,
      "content": "[MASK]",
      "single_word": false,
      "lstrip": false,
      "rstrip": false,
      "normalized": false,
      "special": true
    }
  ],
  "normalizer": {
    "type": "BertNormalizer",
    "clean_text": false,
    "handle_chinese_chars": true,
    "strip_accents": false,
    "lowercase": false
  },
  "pre_tokenizer": {
    "type": "BertPreTokenizer"
  },
  "post_processor": null,
  "decoder": {
    "type": "WordPiece",
    "prefix": "##",
    "cleanup": true
  },
  "model": {
    "type": "WordPiece",
    "unk_token": "[UNK]",
    "continuing_subword_prefix": "##",
    "max_input_chars_per_word": 100,
    "vocab": {
      "[PAD]": 0,
      "[UNK]": 1,
      "[CLS]": 2,
      "[SEP]": 3,
      "[MASK]": 4,
      "|": 5,
      "آ": 6,
      "ا": 7,
      "ب": 8,
      "ت": 9,
      "ث": 10,
      "ج": 11,
      "ح": 12,
      "خ": 13,
      "د": 14,
      "ذ": 15,
      "ر": 16,
      "ز": 17,
      "س": 18,
      "ش": 19,
      "ص": 20,
      "ض": 21,
      "ط": 22,
      "ظ": 23,
      "ع": 24,
      "غ": 25,
      "ف": 26,
      "ق": 27,
      "ل": 28,
      "م": 29,
      "ن": 30,
      "ه": 31,
      "و": 32,
      "پ": 33,
      "چ": 34,
      "ژ": 35,
      "ک": 36,
      "گ": 37,
      "ی": 38,
      "##د": 39,
      "##ی": 40,
      "##ه": 41,
      "##م": 42,
      "##ر": 43,
      "##ا": 44,
      "##ش": 45,
      "##ک": 46,
      "##ن": 47,
      "##ب": 48,
      "##و": 49,
      "##ذ": 50,
      "##ژ": 51,
      "##گ": 52,
      "##آ": 53,
      "##خ": 54,
      "##ت": 55,
      "##س": 56,
      "##ق": 57,
      "##ز": 58,
      "##ف": 59,
      "##چ": 60,
      "##ع": 61,
      "##ج": 62,
      "##ح": 63,
      "##ل": 64,
      "##ط": 65,
      "##پ": 66,
      "##ص": 67,
      "##غ": 68,
      "##ث": 69,
      "##ض": 70,
      "##ظ": 71,
      "##ان": 72,
      "##ند": 73,
      "##ار": 74,
      "##ست": 75,
      "##رد": 76,
      "بر": 77,
      "##ید": 78,
      "##ین": 79,
      "به": 80,
      "##اه": 81,
      "##اد": 82,
      "که": 83,
      "از": 84,
      "##فت": 85,
      "هم": 86,
      "##وی": 87,
      "##ود": 88,
      "##ام": 89,
      "##ای": 90,
      "##یر": 91,
      "بد": 92,
      "با": 93,
      "را": 94,
      "چو": 95,
      "##شت": 96,
      "##را": 97,
      "##ون": 98,
      "##ور": 99,
      "بی": 100,
      "##نگ": 101,
      "در": 102,
      "##خت": 103,
      "گفت": 104,
      "پی": 105,
      "##وان": 106,
      "اند": 107,
      "یک": 108,
      "شد": 109,
      "سر": 110,
      "فر": 111,
      "نی": 112,
      "##مان": 113,
      "##گر": 114,
      "شاه": 115,
      "سپ": 116,
      "##هر": 117,
      "تا": 118,
      "همی": 119,
      "گر": 120,
      "بود": 121,
      "##هان": 122,
      "اندر": 123,
      "##وش": 124,
      "تو": 125,
      "##مد": 126,
      "کرد": 127,
      "پر": 128,
      "دل": 129,
      "آن": 130,
      "##زد": 131,
      "##وز": 132,
      "من": 133,
      "او": 134,
      "چن": 135,
      "##نج": 136,
      "هر": 137,
      "نام": 138,
      "خو": 139,
      "یکی": 140,
      "آمد": 141,
      "همه": 142,
      "جهان": 143,
      "گرد": 144,
      "##یم": 145,
      "نه": 146,
      "##اب": 147,
      "##سی": 148,
      "##شک": 149,
      "##نده": 150,
      "کن": 151,
      "بب": 152,
      "##است": 153,
      "پیش": 154,
      "##سر": 155,
      "بگ": 156,
      "##شان": 157,
      "ای": 158,
      "نب": 159,
      "##فر": 160,
      "چنین": 161,
      "##دار": 162,
      "##یران": 163,
      "کار": 164,
      "##از": 165,
      "مرد": 166,
      "این": 167,
      "##یان": 168,
      "داد": 169,
      "##ال": 170,
      "##اک": 171,
      "سپاه": 172,
      "##ورد": 173,
      "##اس": 174,
      "بدو": 175,
      "روز": 176,
      "دو": 177,
      "بخ": 178,
      "##شکر": 179,
      "##گاه": 180,
      "پس": 181,
      "##وار": 182,
      "##یز": 183,
      "شهر": 184,
      "گشت": 185,
      "##خن": 186,
      "##تر": 187,
      "دست": 188,
      "لشکر": 189,
      "سخن": 190,
      "##شید": 191,
      "چون": 192,
      "دید": 193,
      "کو": 194,
      "جنگ": 195,
      "بن": 196,
      "روی": 197,
      "##شم": 198,
      "جای": 199,
      "##اید": 200,
      "##اند": 201,
      "##گان": 202,
      "بپ": 203,
      "راه": 204,
      "چه": 205,
      "##یار": 206,
      "بهر": 207,
      "برآ": 208,
      "##گه": 209,
      "##شد": 210,
      "دار": 211,
      "ایران": 212,
      "سوی": 213,
      "##امد": 214,
      "گی": 215,
      "##یک": 216,
      "##وم": 217,
      "همان": 218,
      "تخت": 219,
      "مر": 220,
      "##ها": 221,
      "باد": 222,
      "تن": 223,
      "##زم": 224,
      "بدان": 225,
      "خوی": 226,
      "ما": 227,
      "وز": 228,
      "نزد": 229,
      "##سته": 230,
      "سپه": 231,
      "آب": 232,
      "مرا": 233,
      "##گار": 234,
      "شاد": 235,
      "زم": 236,
      "خر": 237,
      "##یره": 238,
      "باز": 239,
      "##یش": 240,
      "زمین": 241,
      "دی": 242,
      "کین": 243,
      "##راز": 244,
      "بز": 245,
      "##بد": 246,
      "##شن": 247,
      "خرد": 248,
      "اس": 249,
      "##او": 250,
      "اف": 251,
      "شهریار": 252,
      "زر": 253,
      "##بر": 254,
      "بار": 255,
      "بیامد": 256,
      "دان": 257,
      "سی": 258,
      "کز": 259,
      "##اده": 260,
      "نیز": 261,
      "گنج": 262,
      "آفر": 263,
      "##زار": 264,
      "##سید": 265,
      "تاج": 266,
      "##مند": 267,
      "##مود": 268,
      "رای": 269,
      "##بان": 270,
      "بران": 271,
      "نش": 272,
      "##دید": 273,
      "سوار": 274,
      "فرست": 275,
      "کس": 276,
      "بدین": 277,
      "نیک": 278,
      "مه": 279,
      "برد": 280,
      "##من": 281,
      "تر": 282,
      "کسی": 283,
      "شیر": 284,
      "خویش": 285,
      "پیر": 286,
      "رنج": 287,
      "زمان": 288,
      "##واند": 289,
      "چند": 290,
      "ازان": 291,
      "گو": 292,
      "##اشت": 293,
      "خون": 294,
      "بک": 295,
      "آفرین": 296,
      "شم": 297,
      "##ستم": 298,
      "بسی": 299,
      "اگر": 300,
      "بس": 301,
      "زین": 302,
      "##هن": 303,
      "اوی": 304,
      "بزر": 305,
      "آر": 306,
      "رزم": 307,
      "کوه": 308,
      "بج": 309,
      "آید": 310,
      "##فتند": 311,
      "##وس": 312,
      "برو": 313,
      "نزدیک": 314,
      "ده": 315,
      "روان": 316,
      "شب": 317,
      "نخ": 318,
      "نیست": 319,
      "پاس": 320,
      "برگ": 321,
      "##اخت": 322,
      "##تی": 323,
      "نامدار": 324,
      "خور": 325,
      "کنون": 326,
      "چنان": 327,
      "آورد": 328,
      "##جا": 329,
      "##گی": 330,
      "یاد": 331,
      "یزد": 332,
      "پیل": 333,
      "خواست": 334,
      "رفت": 335,
      "##وشن": 336,
      "بفر": 337,
      "نو": 338,
      "خواه": 339,
      "ست": 340,
      "بل": 341,
      "میان": 342,
      "##ایه": 343,
      "ماه": 344,
      "جز": 345,
      "دگر": 346,
      "یزدان": 347,
      "زان": 348,
      "##رم": 349,
      "##اره": 350,
      "مهر": 351,
      "جان": 352,
      "رستم": 353,
      "پاسخ": 354,
      "##سرو": 355,
      "ترا": 356,
      "##هل": 357,
      "می": 358,
      "##ونه": 359,
      "گیتی": 360,
      "##ماند": 361,
      "شود": 362,
      "کی": 363,
      "کم": 364,
      "پهل": 365,
      "##ستان": 366,
      "اندرون": 367,
      "گز": 368,
      "بهرام": 369,
      "گوی": 370,
      "درد": 371,
      "نامه": 372,
      "##در": 373,
      "##کن": 374,
      "بشن": 375,
      "رخ": 376,
      "برین": 377,
      "کند": 378,
      "پای": 379,
      "کش": 380,
      "خاک": 381,
      "سال": 382,
      "##یغ": 383,
      "کشت": 384,
      "##وران": 385,
      "پاک": 386,
      "نگ": 387,
      "پدر": 388,
      "کجا": 389,
      "باید": 390,
      "بیار": 391,
      "دشت": 392,
      "سرا": 393,
      "##هی": 394,
      "باشد": 395,
      "بدی": 396,
      "راست": 397,
      "خروش": 398,
      "زن": 399,
      "##شی": 400,
      "گفتار": 401,
      "##جوی": 402,
      "بید": 403,
      "##واه": 404,
      "بند": 405,
      "شن": 406,
      "پهلوان": 407,
      "تیره": 408,
      "نگه": 409,
      "نهاد": 410,
      "گرفت": 411,
      "روزگار": 412,
      "کل": 413,
      "##رز": 414,
      "##وه": 415,
      "##ذر": 416,
      "بفرمود": 417,
      "کای": 418,
      "نا": 419,
      "نشست": 420,
      "خسرو": 421,
      "##ادر": 422,
      "برآمد": 423,
      "مهتر": 424,
      "گاه": 425,
      "##ران": 426,
      "جوی": 427,
      "سو": 428,
      "چین": 429,
      "مو": 430,
      "##با": 431,
      "##گند": 432,
      "##رده": 433,
      "##کس": 434,
      "تیغ": 435,
      "رسید": 436,
      "مگر": 437,
      "##یچ": 438,
      "آور": 439,
      "خود": 440,
      "روشن": 441,
      "کا": 442,
      "انج": 443,
      "خواند": 444,
      "اسپ": 445,
      "بشنید": 446,
      "جام": 447,
      "##شاه": 448,
      "ازین": 449,
      "دین": 450,
      "چشم": 451,
      "##فش": 452,
      "بخت": 453,
      "روم": 454,
      "فرمان": 455,
      "##یده": 456,
      "گران": 457,
      "جهاندار": 458,
      "پیروز": 459,
      "ام": 460,
      "انجمن": 461,
      "پرست": 462,
      "کشید": 463,
      "##شیر": 464,
      "بلند": 465,
      "##یست": 466,
      "##ذشت": 467,
      "وزان": 468,
      "خورشید": 469,
      "گردان": 470,
      "کام": 471,
      "موبد": 472,
      "پشت": 473,
      "گونه": 474,
      "چیز": 475,
      "##باد": 476,
      "##شاد": 477,
      "##ختر": 478,
      "##یشه": 479,
      "بدید": 480,
      "ورا": 481,
      "برن": 482,
      "نبرد": 483,
      "نامور": 484,
      "گفتی": 485,
      "اید": 486,
      "تیز": 487,
      "جوان": 488,
      "##کان": 489,
      "نهان": 490,
      "##تن": 491,
      "##اور": 492,
      "##کار": 493,
      "##های": 494,
      "زد": 495,
      "غم": 496,
      "سه": 497,
      "##واز": 498,
      "ازو": 499,
      "##خم": 500,
      "آت": 501,
      "##یب": 502,
      "ار": 503,
      "وگر": 504,
      "تیر": 505,
      "فرز": 506,
      "کلاه": 507,
      "دارد": 508,
      "آز": 509,
      "دژ": 510,
      "هو": 511,
      "بزرگان": 512,
      "داشت": 513,
      "خد": 514,
      "دری": 515,
      "تنگ": 516,
      "##شمن": 517,
      "دیده": 518,
      "چنگ": 519,
      "##مای": 520,
      "پاد": 521,
      "گردد": 522,
      "زرین": 523,
      "بیاراست": 524,
      "یا": 525,
      "##ندی": 526,
      "برفتند": 527,
      "ندید": 528,
      "دیگر": 529,
      "گل": 530,
      "بال": 531,
      "بوم": 532,
      "خواب": 533,
      "فرستاد": 534,
      "ماند": 535,
      "##سیاب": 536,
      "فرخ": 537,
      "گوهر": 538,
      "کشور": 539,
      "##وید": 540,
      "گیو": 541,
      "بپر": 542,
      "##فته": 543,
      "افرا": 544,
      "مردم": 545,
      "کمر": 546,
      "دشمن": 547,
      "برخ": 548,
      "آتش": 549,
      "##گنده": 550,
      "دور": 551,
      "زو": 552,
      "##گفت": 553,
      "شدند": 554,
      "نامداران": 555,
      "##سان": 556,
      "کینه": 557,
      "##هاد": 558,
      "فرستاده": 559,
      "است": 560,
      "فرا": 561,
      "بگفت": 562,
      "##شست": 563,
      "آی": 564,
      "نباید": 565,
      "کردار": 566,
      "کاو": 567,
      "زیر": 568,
      "##فراز": 569,
      "یکسر": 570,
      "نشان": 571,
      "یار": 572,
      "ند": 573,
      "نبود": 574,
      "افراسیاب": 575,
      "بگذ": 576,
      "سپهبد": 577,
      "##اسپ": 578,
      "سواران": 579,
      "##یخت": 580,
      "##نی": 581,
      "بت": 582,
      "شنید": 583,
      "گرز": 584,
      "جست": 585,
      "بیدار": 586,
      "خردمند": 587,
      "خورد": 588,
      "کنم": 589,
      "##قان": 590,
      "هرگ": 591,
      "مرز": 592,
      "هزار": 593,
      "ایوان": 594,
      "چر": 595,
      "##صر": 596,
      "بم": 597,
      "راز": 598,
      "خوار": 599,
      "نبا": 600,
      "ندار": 601,
      "##ودرز": 602,
      "اندیشه": 603,
      "بگوی": 604,
      "سرش": 605,
      "بیا": 606,
      "نماند": 607,
      "چرا": 608,
      "بیش": 609,
      "سران": 610,
      "##استان": 611,
      "ساخت": 612,
      "نژ": 613,
      "##انه": 614,
      "کرده": 615,
      "کارزار": 616,
      "##یشان": 617,
      "سپهر": 618,
      "آنک": 619,
      "آواز": 620,
      "دانش": 621,
      "فز": 622,
      "پیران": 623,
      "##نان": 624,
      "##ایش": 625,
      "##اوش": 626,
      "زبان": 627,
      "سرای": 628,
      "دلیر": 629,
      "باره": 630,
      "برک": 631,
      "قی": 632,
      "سیاوش": 633,
      "توران": 634,
      "تاز": 635,
      "##ناه": 636,
      "کشته": 637,
      "فرزند": 638,
      "نخست": 639,
      "فراوان": 640,
      "گردن": 641,
      "گودرز": 642,
      "نیزه": 643,
      "ابا": 644,
      "هرچ": 645,
      "خوب": 646,
      "قیصر": 647,
      "##لی": 648,
      "شگفت": 649,
      "بباید": 650,
      "##اف": 651,
      "##گیر": 652,
      "فراز": 653,
      "پسر": 654,
      "ساز": 655,
      "##ستی": 656,
      "گذشت": 657,
      "##اش": 658,
      "##ژن": 659,
      "رو": 660,
      "بین": 661,
      "رهن": 662,
      "آرام": 663,
      "درفش": 664,
      "ابر": 665,
      "بماند": 666,
      "مغ": 667,
      "دلش": 668,
      "هن": 669,
      "گوش": 670,
      "##ژد": 671,
      "ترکان": 672,
      "بپرسید": 673,
      "چاره": 674,
      "دم": 675,
      "##سار": 676,
      "ایدر": 677,
      "جنگی": 678,
      "چهر": 679,
      "##ری": 680,
      "شا": 681,
      "ایرانیان": 682,
      "شمشیر": 683,
      "طوس": 684,
      "##رید": 685,
      "فرود": 686,
      "سالار": 687,
      "خا": 688,
      "نک": 689,
      "##فند": 690,
      "بست": 691,
      "لب": 692,
      "##ابد": 693,
      "چرخ": 694,
      "##نش": 695,
      "بیاورد": 696,
      "پدید": 697,
      "##نه": 698,
      "##ایی": 699,
      "خیره": 700,
      "##یند": 701,
      "تار": 702,
      "شاهی": 703,
      "آیین": 704,
      "سان": 705,
      "سپرد": 706,
      "شما": 707,
      "اختر": 708,
      "##وند": 709,
      "##گرد": 710,
      "نژاد": 711,
      "بشد": 712,
      "##مایه": 713,
      "باش": 714,
      "سز": 715,
      "آمدند": 716,
      "رود": 717,
      "نهادند": 718,
      "هنر": 719,
      "بنده": 720,
      "داستان": 721,
      "##اج": 722,
      "##کنون": 723,
      "نباشد": 724,
      "مشک": 725,
      "هوا": 726,
      "##وشید": 727,
      "ایشان": 728,
      "بیژن": 729,
      "سپهدار": 730,
      "برفت": 731,
      "بسته": 732,
      "ببست": 733,
      "فرو": 734,
      "اکنون": 735,
      "جفت": 736,
      "##هم": 737,
      "مردی": 738,
      "ره": 739,
      "کمان": 740,
      "هرگز": 741,
      "دراز": 742,
      "براند": 743,
      "سیاه": 744,
      "صد": 745,
      "آرا": 746,
      "بخواند": 747,
      "رنگ": 748,
      "##ندر": 749,
      "سپاهی": 750,
      "مباد": 751,
      "پذ": 752,
      "یل": 753,
      "برآورد": 754,
      "خاقان": 755,
      "##شتن": 756,
      "نر": 757,
      "سود": 758,
      "نهفت": 759,
      "کوس": 760,
      "درم": 761,
      "افسر": 762,
      "دینار": 763,
      "آس": 764,
      "##ندان": 765,
      "بای": 766,
      "برز": 767,
      "آگه": 768,
      "سخت": 769,
      "هست": 770,
      "نیاز": 771,
      "گرگ": 772,
      "ببرد": 773,
      "پل": 774,
      "##فندیار": 775,
      "تخم": 776,
      "گمان": 777,
      "ارد": 778,
      "وی": 779,
      "##سم": 780,
      "خوان": 781,
      "##ارد": 782,
      "##ردار": 783,
      "##وده": 784,
      "اسفندیار": 785,
      "##جام": 786,
      "ریخت": 787,
      "هیچ": 788,
      "##نگه": 789,
      "##یدون": 790,
      "پیمان": 791,
      "##وخت": 792,
      "دریا": 793,
      "پرا": 794,
      "درنگ": 795,
      "تاخت": 796,
      "آرز": 797,
      "ایم": 798,
      "بیم": 799,
      "آنچ": 800,
      "رخش": 801,
      "سام": 802,
      "برادر": 803,
      "چندی": 804,
      "ناپ": 805,
      "فزون": 806,
      "راند": 807,
      "دیو": 808,
      "##اوند": 809,
      "سرافراز": 810,
      "پند": 811,
      "بخش": 812,
      "سراسر": 813,
      "##نب": 814,
      "##امش": 815,
      "بزد": 816,
      "زرد": 817,
      "مکن": 818,
      "بگر": 819,
      "##سپ": 820,
      "رزمگاه": 821,
      "گزین": 822,
      "خداوند": 823,
      "گش": 824,
      "درخت": 825,
      "ببین": 826,
      "مرگ": 827,
      "اژد": 828,
      "گزند": 829,
      "هوش": 830,
      "کیان": 831,
      "مغز": 832,
      "زال": 833,
      "##خواه": 834,
      "کهن": 835,
      "سرو": 836,
      "کزین": 837,
      "جامه": 838,
      "کمند": 839,
      "بان": 840,
      "بدست": 841,
      "بپیچ": 842,
      "آه": 843,
      "پور": 844,
      "##تاب": 845,
      "##نگام": 846,
      "تب": 847,
      "خسته": 848,
      "دمان": 849,
      "پرده": 850,
      "نخواه": 851,
      "زار": 852,
      "مهان": 853,
      "ننگ": 854,
      "پرخ": 855,
      "بزرگ": 856,
      "خواسته": 857,
      "بسیار": 858,
      "یافت": 859,
      "نیکی": 860,
      "برکشید": 861,
      "##کندر": 862,
      "بزرگی": 863,
      "برگشت": 864,
      "دانا": 865,
      "پرستنده": 866,
      "ارج": 867,
      "زنده": 868,
      "نیاید": 869,
      "تاب": 870,
      "بگرد": 871,
      "بنهاد": 872,
      "کاین": 873,
      "آگاه": 874,
      "بداد": 875,
      "ببخ": 876,
      "##شاند": 877,
      "برخاست": 878,
      "زی": 879,
      "سنگ": 880,
      "برش": 881,
      "شده": 882,
      "آباد": 883,
      "توان": 884,
      "مایه": 885,
      "گه": 886,
      "گشته": 887,
      "شوی": 888,
      "کهتر": 889,
      "##ابل": 890,
      "ندان": 891,
      "خانه": 892,
      "مادر": 893,
      "هران": 894,
      "آزاد": 895,
      "شوم": 896,
      "زمانه": 897,
      "پیاده": 898,
      "خشم": 899,
      "##شه": 900,
      "بدر": 901,
      "بیر": 902,
      "##ارم": 903,
      "بچ": 904,
      "سب": 905,
      "پادش": 906,
      "رهنمای": 907,
      "پلنگ": 908,
      "##آمد": 909,
      "##چیر": 910,
      "دلیران": 911,
      "دیدار": 912,
      "پادشاه": 913,
      "کاووس": 914,
      "برتر": 915,
      "سخنها": 916,
      "موبدان": 917,
      "نوش": 918,
      "بیند": 919,
      "گشتاسپ": 920,
      "کر": 921,
      "درگاه": 922,
      "کردگار": 923,
      "نبد": 924,
      "تهم": 925,
      "سیم": 926,
      "شک": 927,
      "زور": 928,
      "مهتران": 929,
      "گست": 930,
      "##یدن": 931,
      "##ویی": 932,
      "کاخ": 933,
      "نم": 934,
      "هند": 935,
      "##دی": 936,
      "بیداد": 937,
      "شاهان": 938,
      "##شکار": 939,
      "خواندند": 940,
      "بالا": 941,
      "پو": 942,
      "کان": 943,
      "##ندگان": 944,
      "کود": 945,
      "##وق": 946,
      "برگر": 947,
      "هرک": 948,
      "بگشاد": 949,
      "##اشتند": 950,
      "بوی": 951,
      "گور": 952,
      "##کشان": 953,
      "کنی": 954,
      "اسب": 955,
      "نخچیر": 956,
      "خواهد": 957,
      "هنگام": 958,
      "راستی": 959,
      "سکندر": 960,
      "همچ": 961,
      "کنیم": 962,
      "ببند": 963,
      "رومی": 964,
      "جوشن": 965,
      "##بیر": 966,
      "نیم": 967,
      "دژم": 968,
      "آگهی": 969,
      "بیرون": 970,
      "بیاب": 971,
      "فری": 972,
      "مرغ": 973,
      "هفت": 974,
      "پراگنده": 975,
      "تهمتن": 976,
      "منست": 977,
      "کنید": 978,
      "بخواه": 979,
      "جایگه": 980,
      "سواری": 981,
      "آمدش": 982,
      "مردان": 983,
      "فروز": 984,
      "بنزد": 985,
      "همانا": 986,
      "ندارد": 987,
      "هام": 988,
      "##وت": 989,
      "نیر": 990,
      "نیامد": 991,
      "دختر": 992,
      "چندین": 993,
      "##روز": 994,
      "##شتی": 995,
      "##نجر": 996,
      "شادی": 997,
      "بجنگ": 998,
      "آسمان": 999,
      "دام": 1000,
      "##آن": 1001,
      "خویشتن": 1002,
      "گویی": 1003,
      "مست": 1004,
      "براف": 1005,
      "درست": 1006,
      "افگند": 1007,
      "گردش": 1008,
      "تنش": 1009,
      "چیزی": 1010,
      "زود": 1011,
      "زهر": 1012,
      "##یمار": 1013,
      "خواهی": 1014,
      "نکرد": 1015,
      "ور": 1016,
      "##شتند": 1017,
      "همیشه": 1018,
      "##اله": 1019,
      "گناه": 1020,
      "داری": 1021,
      "شهن": 1022,
      "ترک": 1023,
      "شمار": 1024,
      "اردشیر": 1025,
      "اژدها": 1026,
      "آرد": 1027,
      "##سد": 1028,
      "آهن": 1029,
      "آشکار": 1030,
      "تیمار": 1031,
      "کد": 1032,
      "نیا": 1033,
      "چندان": 1034,
      "گرانمایه": 1035,
      "سزا": 1036,
      "ایزد": 1037,
      "پسند": 1038,
      "پادشاهی": 1039,
      "##امی": 1040,
      "گرفتند": 1041,
      "ناپدید": 1042,
      "شهنشاه": 1043,
      "پیوند": 1044,
      "##ینه": 1045,
      "باغ": 1046,
      "پیچ": 1047,
      "گروه": 1048,
      "بخرد": 1049,
      "ایدون": 1050,
      "بزم": 1051,
      "نج": 1052,
      "##ویخت": 1053,
      "تست": 1054,
      "پار": 1055,
      "گذر": 1056,
      "نبین": 1057,
      "##ستهم": 1058,
      "شادمان": 1059,
      "خرم": 1060,
      "بتر": 1061,
      "##ایک": 1062,
      "پیکار": 1063,
      "جهانجوی": 1064,
      "شتاب": 1065,
      "عنان": 1066,
      "نگاه": 1067,
      "##لب": 1068,
      "##پور": 1069,
      "ایچ": 1070,
      "دستور": 1071,
      "بکردار": 1072,
      "پرخاش": 1073,
      "شرم": 1074,
      "باژ": 1075,
      "آورید": 1076,
      "یکایک": 1077,
      "آنکس": 1078,
      "دادگر": 1079,
      "موی": 1080,
      "##شو": 1081,
      "##ازه": 1082,
      "کیست": 1083,
      "پید": 1084,
      "##بار": 1085,
      "دریای": 1086,
      "آرزو": 1087,
      "پادشا": 1088,
      "هی": 1089,
      "برون": 1090,
      "لشکری": 1091,
      "دهد": 1092,
      "کودک": 1093,
      "یال": 1094,
      "##راب": 1095,
      "خرام": 1096,
      "بگذرد": 1097,
      "بودند": 1098,
      "فریدون": 1099,
      "دستان": 1100,
      "گرم": 1101,
      "سخنهای": 1102,
      "بجای": 1103,
      "خسر": 1104,
      "خنجر": 1105,
      "داور": 1106,
      "سزد": 1107,
      "طل": 1108,
      "بروی": 1109,
      "دبیر": 1110,
      "بنشست": 1111,
      "کزو": 1112,
      "بالای": 1113,
      "رامش": 1114,
      "جایی": 1115,
      "ستاره": 1116,
      "##ده": 1117,
      "چوب": 1118,
      "کردن": 1119,
      "هفته": 1120,
      "پنج": 1121,
      "چار": 1122,
      "##لاد": 1123,
      "##ارستان": 1124,
      "باشی": 1125,
      "بودی": 1126,
      "جهاندید": 1127,
      "برگز": 1128,
      "رفتن": 1129,
      "کژ": 1130,
      "گهر": 1131,
      "##گوی": 1132,
      "کزان": 1133,
      "بنزدیک": 1134,
      "نپ": 1135,
      "چیست": 1136,
      "اندران": 1137,
      "بداند": 1138,
      "آم": 1139,
      "گستهم": 1140,
      "گوید": 1141,
      "تاریک": 1142,
      "نگر": 1143,
      "کردند": 1144,
      "زره": 1145,
      "هامون": 1146,
      "زخم": 1147,
      "عاج": 1148,
      "یاب": 1149,
      "##شته": 1150,
      "ببر": 1151,
      "بسان": 1152,
      "خورش": 1153,
      "پیدا": 1154,
      "ها": 1155,
      "##فتاب": 1156,
      "نگرد": 1157,
      "##دان": 1158,
      "##اری": 1159,
      "پیلان": 1160,
      "سزاوار": 1161,
      "##خسرو": 1162,
      "بهشت": 1163,
      "پذیره": 1164,
      "آفتاب": 1165,
      "شاهنش": 1166,
      "بنو": 1167,
      "گشاد": 1168,
      "##هرمن": 1169,
      "منم": 1170,
      "نشاید": 1171,
      "زمانی": 1172,
      "غمی": 1173,
      "##لیح": 1174,
      "مبادا": 1175,
      "سلیح": 1176,
      "مدار": 1177,
      "تازه": 1178,
      "گیر": 1179,
      "##مرد": 1180,
      "##انی": 1181,
      "بهار": 1182,
      "بپرد": 1183,
      "##پای": 1184,
      "ازیشان": 1185,
      "شدن": 1186,
      "اندرین": 1187,
      "جگر": 1188,
      "سیر": 1189,
      "##اغ": 1190,
      "سرب": 1191,
      "بیاراستند": 1192,
      "شاپور": 1193,
      "بانگ": 1194,
      "زاد": 1195,
      "خوش": 1196,
      "درف": 1197,
      "درود": 1198,
      "اندازه": 1199,
      "دلاور": 1200,
      "بخند": 1201,
      "پیلتن": 1202,
      "مهتری": 1203,
      "آراسته": 1204,
      "خل": 1205,
      "بدگ": 1206,
      "کردی": 1207,
      "بهره": 1208,
      "شاخ": 1209,
      "دیر": 1210,
      "نمود": 1211,
      "گاو": 1212,
      "کنند": 1213,
      "بارگاه": 1214,
      "بیشه": 1215,
      "بش": 1216,
      "جاد": 1217,
      "جوش": 1218,
      "##ایم": 1219,
      "بیاید": 1220,
      "گریز": 1221,
      "برنهاد": 1222,
      "خوبی": 1223,
      "بنگ": 1224,
      "تهی": 1225,
      "جا": 1226,
      "له": 1227,
      "##یل": 1228,
      "##کر": 1229,
      "نهاده": 1230,
      "نبیند": 1231,
      "بنه": 1232,
      "بازار": 1233,
      "یادگار": 1234,
      "دوان": 1235,
      "##شفت": 1236,
      "##اختند": 1237,
      "بپیچید": 1238,
      "برگرفت": 1239,
      "جهاندیده": 1240,
      "جوید": 1241,
      "سنان": 1242,
      "##کام": 1243,
      "##لم": 1244,
      "پرورد": 1245,
      "##سری": 1246,
      "بدانست": 1247,
      "یلان": 1248,
      "هندی": 1249,
      "پرد": 1250,
      "##ویش": 1251,
      "کیخسرو": 1252,
      "اسپان": 1253,
      "هومان": 1254,
      "هرانکس": 1255,
      "آنگه": 1256,
      "شیران": 1257,
      "کران": 1258,
      "##اوران": 1259,
      "دود": 1260,
      "سرد": 1261,
      "چاک": 1262,
      "ژیان": 1263,
      "کف": 1264,
      "##بای": 1265,
      "روزی": 1266,
      "شگفتی": 1267,
      "##هار": 1268,
      "##بخت": 1269,
      "##ستند": 1270,
      "بدند": 1271,
      "هرکس": 1272,
      "بپوشید": 1273,
      "دیوان": 1274,
      "آوریم": 1275,
      "خم": 1276,
      "برسان": 1277,
      "##واره": 1278,
      "گراز": 1279,
      "##کش": 1280,
      "بودش": 1281,
      "##یمه": 1282,
      "بیابان": 1283,
      "پارس": 1284,
      "خشک": 1285,
      "شارستان": 1286,
      "پیکر": 1287,
      "سرفراز": 1288,
      "##فرین": 1289,
      "سیه": 1290,
      "هیون": 1291,
      "کسری": 1292,
      "##ژه": 1293,
      "نیو": 1294,
      "بدیشان": 1295,
      "خروشان": 1296,
      "آگاهی": 1297,
      "##دا": 1298,
      "##گونه": 1299,
      "فرمود": 1300,
      "##ابه": 1301,
      "وزین": 1302,
      "خروشی": 1303,
      "بخندید": 1304,
      "فره": 1305,
      "##فروخت": 1306,
      "بازگ": 1307,
      "ترگ": 1308,
      "بمان": 1309,
      "##دل": 1310,
      "##ساز": 1311,
      "بدن": 1312,
      "دارم": 1313,
      "بادا": 1314,
      "فرخنده": 1315,
      "سبک": 1316,
      "بخردان": 1317,
      "ستر": 1318,
      "شست": 1319,
      "ناب": 1320,
      "نرم": 1321,
      "##خر": 1322,
      "بخو": 1323,
      "نگون": 1324,
      "##ازد": 1325,
      "##سب": 1326,
      "##سو": 1327,
      "اوست": 1328,
      "برآشفت": 1329,
      "خواستند": 1330,
      "ببستند": 1331,
      "آهنگ": 1332,
      "دخت": 1333,
      "##کی": 1334,
      "##فز": 1335,
      "هرآن": 1336,
      "شناس": 1337,
      "امروز": 1338,
      "ارجمند": 1339,
      "سترگ": 1340,
      "آزار": 1341,
      "تندی": 1342,
      "پوش": 1343,
      "##انش": 1344,
      "شدی": 1345,
      "ایدونک": 1346,
      "##یدان": 1347,
      "سرخ": 1348,
      "جایگاه": 1349,
      "خدای": 1350,
      "یابد": 1351,
      "فرجام": 1352,
      "سپید": 1353,
      "منش": 1354,
      "آمدی": 1355,
      "بگی": 1356,
      "بپیش": 1357,
      "نخستین": 1358,
      "شاهنشهی": 1359,
      "قباد": 1360,
      "قلب": 1361,
      "بهم": 1362,
      "##برز": 1363,
      "کشوری": 1364,
      "نگردد": 1365,
      "کاست": 1366,
      "##اژ": 1367,
      "##اندیشه": 1368,
      "برانگی": 1369,
      "بکشت": 1370,
      "برگشاد": 1371,
      "تباه": 1372,
      "آزم": 1373,
      "کابل": 1374,
      "##هد": 1375,
      "##مید": 1376,
      "##به": 1377,
      "##نگی": 1378,
      "دلت": 1379,
      "بازگرد": 1380,
      "چینی": 1381,
      "بمرد": 1382,
      "بایران": 1383,
      "پولاد": 1384,
      "آذر": 1385,
      "زیان": 1386,
      "##وای": 1387,
      "##عت": 1388,
      "برید": 1389,
      "ببردند": 1390,
      "کژی": 1391,
      "آسان": 1392,
      "نشن": 1393,
      "ویران": 1394,
      "##واد": 1395,
      "##گهان": 1396,
      "##قوت": 1397,
      "پیام": 1398,
      "##سیوز": 1399,
      "شادان": 1400,
      "نشسته": 1401,
      "آیدت": 1402,
      "نگهبان": 1403,
      "یاقوت": 1404,
      "رهنم": 1405,
      "##دیه": 1406,
      "بشم": 1407,
      "تفت": 1408,
      "میدان": 1409,
      "نگار": 1410,
      "گهی": 1411,
      "براه": 1412,
      "##یزه": 1413,
      "لشکرش": 1414,
      "##اندر": 1415,
      "گیرد": 1416,
      "کشتی": 1417,
      "امید": 1418,
      "برگزید": 1419,
      "توی": 1420,
      "هدیه": 1421,
      "برت": 1422,
      "برزد": 1423,
      "پیغ": 1424,
      "برداشت": 1425,
      "پذیر": 1426,
      "بدگمان": 1427,
      "رسم": 1428,
      "کرا": 1429,
      "##فور": 1430,
      "بدوی": 1431,
      "گریان": 1432,
      "##وزش": 1433,
      "##ازند": 1434,
      "آوردگاه": 1435,
      "هرگونه": 1436,
      "سرانجام": 1437,
      "طلایه": 1438,
      "سربسر": 1439,
      "رهنمون": 1440,
      "شور": 1441,
      "##یزد": 1442,
      "سپنج": 1443,
      "پرآ": 1444,
      "پیشش": 1445,
      "بگذشت": 1446,
      "بنمود": 1447,
      "دانی": 1448,
      "ایمن": 1449,
      "آهرمن": 1450,
      "بشست": 1451,
      "خاست": 1452,
      "پناه": 1453,
      "##لت": 1454,
      "بیک": 1455,
      "درویش": 1456,
      "دلم": 1457,
      "##الید": 1458,
      "آورم": 1459,
      "کاوس": 1460,
      "گردنکشان": 1461,
      "شکار": 1462,
      "صف": 1463,
      "بره": 1464,
      "سپاس": 1465,
      "دستگاه": 1466,
      "بداندیش": 1467,
      "##ودان": 1468,
      "گفتن": 1469,
      "بخورد": 1470,
      "نشیب": 1471,
      "نشستند": 1472,
      "نوشین": 1473,
      "برانگیخت": 1474,
      "ساو": 1475,
      "##مش": 1476,
      "##بند": 1477,
      "##گن": 1478,
      "گردی": 1479,
      "آفرید": 1480,
      "برنشست": 1481,
      "جستن": 1482,
      "گشاده": 1483,
      "سور": 1484,
      "ناز": 1485,
      "پژ": 1486,
      "##فتی": 1487,
      "شدست": 1488,
      "سرت": 1489,
      "گرسیوز": 1490,
      "گشتند": 1491,
      "بگویم": 1492,
      "نماز": 1493,
      "##عل": 1494,
      "گفته": 1495,
      "نیایش": 1496,
      "جهانی": 1497,
      "کوت": 1498,
      "گزید": 1499,
      "هرآنکس": 1500,
      "پوی": 1501,
      "##زن": 1502,
      "بخوان": 1503,
      "بپای": 1504,
      "بخشش": 1505,
      "ببخشید": 1506,
      "خلعت": 1507,
      "نمان": 1508,
      "ناله": 1509,
      "بریشان": 1510,
      "درخ": 1511,
      "نیابد": 1512,
      "##گران": 1513,
      "##وشد": 1514,
      "کنار": 1515,
      "گرفته": 1516,
      "داشتی": 1517,
      "تخمه": 1518,
      "بسر": 1519,
      "رسد": 1520,
      "زابل": 1521,
      "لاژ": 1522,
      "گنه": 1523,
      "##صد": 1524,
      "نیاب": 1525,
      "سپر": 1526,
      "گرامی": 1527,
      "نهنگ": 1528,
      "دوست": 1529,
      "##یکن": 1530,
      "کشیدند": 1531,
      "نبودی": 1532,
      "لاژورد": 1533,
      "آوای": 1534,
      "مان": 1535,
      "گم": 1536,
      "##دای": 1537,
      "##پال": 1538,
      "##شیمان": 1539,
      "لهرا": 1540,
      "ری": 1541,
      "رها": 1542,
      "شای": 1543,
      "ول": 1544,
      "پشیمان": 1545,
      "##فا": 1546,
      "##له": 1547,
      "دریغ": 1548,
      "دیبا": 1549,
      "دیبای": 1550,
      "مهی": 1551,
      "بردند": 1552,
      "گذشته": 1553,
      "همچو": 1554,
      "خان": 1555,
      "##وچ": 1556,
      "برف": 1557,
      "##شتر": 1558,
      "پرمایه": 1559,
      "دلی": 1560,
      "بگذاشت": 1561,
      "جم": 1562,
      "جدا": 1563,
      "رست": 1564,
      "مجوی": 1565,
      "پوزش": 1566,
      "##هیم": 1567,
      "##گون": 1568,
      "بدخواه": 1569,
      "کردم": 1570,
      "گردون": 1571,
      "نوذر": 1572,
      "ستایش": 1573,
      "انگ": 1574,
      "زیب": 1575,
      "چپ": 1576,
      "بگفتند": 1577,
      "جنگجوی": 1578,
      "پیچان": 1579,
      "تور": 1580,
      "خار": 1581,
      "داند": 1582,
      "ناس": 1583,
      "کشان": 1584,
      "##چون": 1585,
      "باک": 1586,
      "درون": 1587,
      "ولیکن": 1588,
      "نمای": 1589,
      "هشت": 1590,
      "گرو": 1591,
      "منوچ": 1592,
      "ستم": 1593,
      "زیرد": 1594,
      "##ازندران": 1595,
      "آنگ": 1596,
      "پست": 1597,
      "چاه": 1598,
      "چرم": 1599,
      "##رو": 1600,
      "##شای": 1601,
      "برم": 1602,
      "بهمن": 1603,
      "همین": 1604,
      "##ویست": 1605,
      "باب": 1606,
      "درو": 1607,
      "بنفش": 1608,
      "برآید": 1609,
      "دیهیم": 1610,
      "بینی": 1611,
      "منوچهر": 1612,
      "بشک": 1613,
      "کت": 1614,
      "کوش": 1615,
      "##بود": 1616,
      "##پرده": 1617,
      "پیکان": 1618,
      "نامب": 1619,
      "ساختند": 1620,
      "قار": 1621,
      "##گال": 1622,
      "##خته": 1623,
      "پراندیشه": 1624,
      "هرم": 1625,
      "کشتن": 1626,
      "سراپرده": 1627,
      "فریبرز": 1628,
      "پرخاشجوی": 1629,
      "انب": 1630,
      "خیمه": 1631,
      "زشت": 1632,
      "ضح": 1633,
      "نفرین": 1634,
      "##یح": 1635,
      "گفتند": 1636,
      "شاهوار": 1637,
      "کاری": 1638,
      "رویین": 1639,
      "چهارم": 1640,
      "بجست": 1641,
      "پیروزگر": 1642,
      "نشاند": 1643,
      "نخواهد": 1644,
      "جاودان": 1645,
      "ضحاک": 1646,
      "مک": 1647,
      "مازندران": 1648,
      "هور": 1649,
      "ژنده": 1650,
      "##نبد": 1651,
      "##پر": 1652,
      "بدرد": 1653,
      "گریست": 1654,
      "ببار": 1655,
      "شادکام": 1656,
      "بساز": 1657,
      "خروشیدن": 1658,
      "بگذاشتند": 1659,
      "نخواهم": 1660,
      "پوست": 1661,
      "کدخ": 1662,
      "نامبردار": 1663,
      "بغ": 1664,
      "خست": 1665,
      "زندان": 1666,
      "شه": 1667,
      "گذ": 1668,
      "##ژگان": 1669,
      "##فگند": 1670,
      "##اینده": 1671,
      "نیل": 1672,
      "شیرین": 1673,
      "بجز": 1674,
      "سودمند": 1675,
      "برزین": 1676,
      "خام": 1677,
      "نای": 1678,
      "##وسید": 1679,
      "##جای": 1680,
      "گنجور": 1681,
      "خواهم": 1682,
      "تاختن": 1683,
      "شکست": 1684,
      "شبان": 1685,
      "بیگان": 1686,
      "سرم": 1687,
      "ببود": 1688,
      "داده": 1689,
      "بدانگه": 1690,
      "داننده": 1691,
      "نگین": 1692,
      "آوری": 1693,
      "تازی": 1694,
      "بایست": 1695,
      "ندانم": 1696,
      "خفت": 1697,
      "وخ": 1698,
      "اندکی": 1699,
      "اندرو": 1700,
      "برآورده": 1701,
      "##یحون": 1702,
      "آغ": 1703,
      "فرد": 1704,
      "کج": 1705,
      "##مهر": 1706,
      "##وستان": 1707,
      "##تان": 1708,
      "گفتم": 1709,
      "فرهی": 1710,
      "ببوسید": 1711,
      "دیدم": 1712,
      "بروبر": 1713,
      "دهقان": 1714,
      "پیروزی": 1715,
      "خوردن": 1716,
      "گرگین": 1717,
      "راد": 1718,
      "مشت": 1719,
      "##سون": 1720,
      "##ختی": 1721,
      "سرکشان": 1722,
      "فریب": 1723,
      "##وشه": 1724,
      "آرم": 1725,
      "برگذشت": 1726,
      "نامداری": 1727,
      "سهراب": 1728,
      "نره": 1729,
      "آرزوی": 1730,
      "نان": 1731,
      "بیه": 1732,
      "وزو": 1733,
      "چشمه": 1734,
      "تازیان": 1735,
      "کاستی": 1736,
      "خندان": 1737,
      "شو": 1738,
      "##مه": 1739,
      "##ویم": 1740,
      "فرستم": 1741,
      "زدند": 1742,
      "تابنده": 1743,
      "##شاندند": 1744,
      "کدام": 1745,
      "شایسته": 1746,
      "##ریر": 1747,
      "آمدست": 1748,
      "دیدی": 1749,
      "جزین": 1750,
      "جوانی": 1751,
      "نداند": 1752,
      "ریختن": 1753,
      "بنگرید": 1754,
      "کدخدای": 1755,
      "فردا": 1756,
      "آویخت": 1757,
      "تابان": 1758,
      "دهم": 1759,
      "پهلوی": 1760,
      "ببینی": 1761,
      "ارجاسپ": 1762,
      "نبینی": 1763,
      "اور": 1764,
      "جیحون": 1765,
      "شنگ": 1766,
      "فگند": 1767,
      "نوی": 1768,
      "پهن": 1769,
      "##کرد": 1770,
      "##بل": 1771,
      "##نگار": 1772,
      "نیارد": 1773,
      "ببد": 1774,
      "بگذر": 1775,
      "ستوه": 1776,
      "سختی": 1777,
      "آزادگان": 1778,
      "سبز": 1779,
      "مرغزار": 1780,
      "برافرا": 1781,
      "خسروان": 1782,
      "لهراسپ": 1783,
      "هش": 1784,
      "##بی": 1785,
      "سری": 1786,
      "نامجوی": 1787,
      "چنانچون": 1788,
      "مهربان": 1789,
      "سوگند": 1790,
      "فرزانه": 1791,
      "بگرفت": 1792,
      "ردان": 1793,
      "##داستان": 1794,
      "##هیز": 1795,
      "##خوان": 1796,
      "##سود": 1797,
      "همداستان": 1798,
      "آنجا": 1799,
      "منز": 1800,
      "دانشی": 1801,
      "نیکو": 1802,
      "بفرمان": 1803,
      "پاکیزه": 1804,
      "خرامید": 1805,
      "داغ": 1806,
      "##یرد": 1807,
      "##لک": 1808,
      "برهن": 1809,
      "اندرش": 1810,
      "بگس": 1811,
      "بگشت": 1812,
      "##فروز": 1813,
      "زریر": 1814,
      "خواستی": 1815,
      "برنا": 1816,
      "ساخته": 1817,
      "بینم": 1818,
      "چهره": 1819,
      "گریزان": 1820,
      "قارن": 1821,
      "آگنده": 1822,
      "زند": 1823,
      "هژ": 1824,
      "چادر": 1825,
      "##ات": 1826,
      "بهتر": 1827,
      "پیروزه": 1828,
      "کاموس": 1829,
      "مانده": 1830,
      "رهام": 1831,
      "##نبید": 1832,
      "برخاستند": 1833,
      "ایزدی": 1834,
      "داوری": 1835,
      "فرهنگ": 1836,
      "برهنه": 1837,
      "جاو": 1838,
      "زندگان": 1839,
      "طوق": 1840,
      "غار": 1841,
      "نغ": 1842,
      "##شنگ": 1843,
      "بیچ": 1844,
      "آمدم": 1845,
      "افگنده": 1846,
      "سیاو": 1847,
      "بکوش": 1848,
      "آورده": 1849,
      "گزیده": 1850,
      "یکسره": 1851,
      "نداد": 1852,
      "آشکارا": 1853,
      "بیگانه": 1854,
      "شنگل": 1855,
      "جاوید": 1856,
      "عن": 1857,
      "غر": 1858,
      "برند": 1859,
      "پیو": 1860,
      "سرآ": 1861,
      "منذر": 1862,
      "تنها": 1863,
      "خراد": 1864,
      "مهمان": 1865,
      "گوپال": 1866,
      "بکین": 1867,
      "بسیچ": 1868,
      "نوشت": 1869,
      "گوینده": 1870,
      "بخواب": 1871,
      "کوتاه": 1872,
      "ان": 1873,
      "ران": 1874,
      "میم": 1875,
      "مگرد": 1876,
      "کاندر": 1877,
      "فرس": 1878,
      "بازی": 1879,
      "نیکوی": 1880,
      "برداشتند": 1881,
      "خواستار": 1882,
      "تبیره": 1883,
      "خسروی": 1884,
      "رامشگران": 1885,
      "بنوشت": 1886,
      "بشت": 1887,
      "خبر": 1888,
      "سایه": 1889,
      "یاره": 1890,
      "بهی": 1891,
      "همای": 1892,
      "کارآ": 1893,
      "دهی": 1894,
      "روانش": 1895,
      "رواست": 1896,
      "فزونی": 1897,
      "آهو": 1898,
      "بینداخت": 1899,
      "نپیچ": 1900,
      "درفشی": 1901,
      "کوشش": 1902,
      "کجاست": 1903,
      "خفته": 1904,
      "زبر": 1905,
      "زواره": 1906,
      "شتر": 1907,
      "مژگان": 1908,
      "نجوی": 1909,
      "##رف": 1910,
      "##گز": 1911,
      "##گسار": 1912,
      "##ایست": 1913,
      "بیگ": 1914,
      "درشت": 1915,
      "بخون": 1916,
      "دیدند": 1917,
      "بردش": 1918,
      "بردمید": 1919,
      "زینهار": 1920,
      "شبگیر": 1921,
      "کشواد": 1922,
      "بستد": 1923,
      "ببخش": 1924,
      "شویم": 1925,
      "گسترد": 1926,
      "پسندیده": 1927,
      "دروغ": 1928,
      "سیاووش": 1929,
      "زه": 1930,
      "زیشان": 1931,
      "سست": 1932,
      "فغ": 1933,
      "کامد": 1934,
      "##رج": 1935,
      "فرام": 1936,
      "ببیند": 1937,
      "دهش": 1938,
      "رفتی": 1939,
      "بندگان": 1940,
      "بپیچد": 1941,
      "بچنگ": 1942,
      "یابی": 1943,
      "فرسنگ": 1944,
      "ارز": 1945,
      "بشاه": 1946,
      "نث": 1947,
      "##بین": 1948,
      "##خیز": 1949,
      "##قه": 1950,
      "چنو": 1951,
      "ببال": 1952,
      "برده": 1953,
      "بکرد": 1954,
      "ساله": 1955,
      "کلید": 1956,
      "پرستار": 1957,
      "آزاده": 1958,
      "ندارم": 1959,
      "برگشته": 1960,
      "ایر": 1961,
      "بوز": 1962,
      "بوق": 1963,
      "رمه": 1964,
      "##سند": 1965,
      "چهل": 1966,
      "##اختش": 1967,
      "تراست": 1968,
      "پهلوانان": 1969,
      "ندیدم": 1970,
      "سودابه": 1971,
      "توانگر": 1972,
      "آموز": 1973,
      "پارسا": 1974,
      "رستخیز": 1975,
      "میمنه": 1976,
      "##رجمهر": 1977,
      "بوزرجمهر": 1978,
      "آوران": 1979,
      "رام": 1980,
      "کنده": 1981,
      "##ره": 1982,
      "##افت": 1983,
      "برآویخت": 1984,
      "خویشان": 1985,
      "شهریاری": 1986,
      "سیصد": 1987,
      "رزمگه": 1988,
      "##ادرس": 1989,
      "جویی": 1990,
      "زدن": 1991,
      "شنیدم": 1992,
      "بخواهد": 1993,
      "پیغام": 1994,
      "زابلستان": 1995,
      "منزل": 1996,
      "خن": 1997,
      "خز": 1998,
      "عهد": 1999,
      "نز": 2000,
      "هرا": 2001,
      "پوشید": 2002,
      "##نای": 2003,
      "##ساره": 2004,
      "دادار": 2005,
      "همانگه": 2006,
      "ترس": 2007,
      "بجایی": 2008,
      "##گیرد": 2009,
      "کیوان": 2010,
      "خروشید": 2011,
      "ندیدند": 2012,
      "کیانی": 2013,
      "بدره": 2014,
      "فریادرس": 2015,
      "فروزنده": 2016,
      "بازگشت": 2017,
      "گنهکار": 2018,
      "نثار": 2019,
      "##می": 2020,
      "##گس": 2021,
      "##ختند": 2022,
      "نهیب": 2023,
      "پیشه": 2024,
      "نبیره": 2025,
      "دارا": 2026,
      "نگذ": 2027,
      "زنان": 2028,
      "کاوی": 2029,
      "کافور": 2030,
      "##مایگان": 2031,
      "دشمنان": 2032,
      "آراستند": 2033,
      "تابوت": 2034,
      "نیروی": 2035,
      "برافگند": 2036,
      "درفشان": 2037,
      "ساوه": 2038,
      "خفتان": 2039,
      "حص": 2040,
      "رفتند": 2041,
      "سم": 2042,
      "شوند": 2043,
      "وگوی": 2044,
      "پگاه": 2045,
      "پشو": 2046,
      "##قباد": 2047,
      "بریان": 2048,
      "##فتاد": 2049,
      "شدم": 2050,
      "اسبان": 2051,
      "شهریاران": 2052,
      "تاجور": 2053,
      "##بانان": 2054,
      "پرستش": 2055,
      "زاری": 2056,
      "یافتی": 2057,
      "ندانست": 2058,
      "بیدادگر": 2059,
      "بگیتی": 2060,
      "نمانم": 2061,
      "ببارید": 2062,
      "آغاز": 2063,
      "آموزگار": 2064,
      "پشوتن": 2065,
      "سهی": 2066,
      "صند": 2067,
      "مزد": 2068,
      "نگیرد": 2069,
      "##گش": 2070,
      "##گین": 2071,
      "##زشک": 2072,
      "##عد": 2073,
      "##لخ": 2074,
      "برزم": 2075,
      "همال": 2076,
      "بدار": 2077,
      "سرآمد": 2078,
      "پرور": 2079,
      "پیشگاه": 2080,
      "شبستان": 2081,
      "دگرگونه": 2082,
      "کیقباد": 2083,
      "نگهدار": 2084,
      "رسیدند": 2085,
      "هژبر": 2086,
      "فرامرز": 2087,
      "ایرج": 2088,
      "های": 2089,
      "پزشک": 2090,
      "گوان": 2091,
      "برا": 2092,
      "بدکن": 2093,
      "گردنده": 2094,
      "بخاک": 2095,
      "مرو": 2096,
      "##شنود": 2097,
      "بارگی": 2098,
      "مهراب": 2099,
      "رفته": 2100,
      "بلخ": 2101,
      "گویم": 2102,
      "##خمه": 2103,
      "برخواند": 2104,
      "خوردنی": 2105,
      "چراغ": 2106,
      "اردوان": 2107,
      "درختی": 2108,
      "کرنای": 2109,
      "بازارگان": 2110,
      "پژوه": 2111,
      "نیابی": 2112,
      "وب": 2113,
      "##جان": 2114,
      "بها": 2115,
      "##امه": 2116,
      "فرشید": 2117,
      "##ابر": 2118,
      "بگست": 2119,
      "برآن": 2120,
      "دارند": 2121,
      "افگن": 2122,
      "کوهسار": 2123,
      "رومیان": 2124,
      "گوشوار": 2125,
      "تاختند": 2126,
      "رخشنده": 2127,
      "نخچیرگاه": 2128,
      "نجوید": 2129,
      "جادو": 2130,
      "پویان": 2131,
      "هشیار": 2132,
      "بدکنش": 2133,
      "تویی": 2134,
      "دندان": 2135,
      "ژرف": 2136,
      "گنبد": 2137,
      "یاز": 2138,
      "##وهر": 2139,
      "##سه": 2140,
      "راب": 2141,
      "سرشک": 2142,
      "نیام": 2143,
      "بگوید": 2144,
      "##اسان": 2145,
      "بخفت": 2146,
      "شیروی": 2147,
      "آیدش": 2148,
      "یادگیر": 2149,
      "رخساره": 2150,
      "بندوی": 2151,
      "گله": 2152,
      "سزید": 2153,
      "مدارید": 2154,
      "هرمز": 2155,
      "زندگانی": 2156,
      "صندوق": 2157,
      "آشتی": 2158,
      "دخمه": 2159,
      "سازد": 2160,
      "شید": 2161,
      "عق": 2162,
      "غل": 2163,
      "فیل": 2164,
      "فلک": 2165,
      "قیر": 2166,
      "نت": 2167,
      "پرن": 2168,
      "##شمرد": 2169,
      "برآرد": 2170,
      "پرستندگان": 2171,
      "نژند": 2172,
      "ویژه": 2173,
      "توانا": 2174,
      "بچه": 2175,
      "هرکسی": 2176,
      "نبینم": 2177,
      "خرامان": 2178,
      "بپرداختند": 2179,
      "کفن": 2180,
      "##پرست": 2181,
      "نغز": 2182,
      "فرشیدورد": 2183,
      "بام": 2184,
      "کفش": 2185,
      "##وزد": 2186,
      "##خور": 2187,
      "برکن": 2188,
      "بدل": 2189,
      "بیفگند": 2190,
      "اندوه": 2191,
      "پری": 2192,
      "نهد": 2193,
      "بنش": 2194,
      "شبی": 2195,
      "کیی": 2196,
      "رخشان": 2197,
      "بدیدند": 2198,
      "چنگال": 2199,
      "بالین": 2200,
      "گرگسار": 2201,
      "نجست": 2202,
      "شادمانی": 2203,
      "پروردگار": 2204,
      "هیونی": 2205,
      "پوشیده": 2206,
      "تند": 2207,
      "لرز": 2208,
      "نن": 2209,
      "کاید": 2210,
      "##یو": 2211,
      "##روی": 2212,
      "بدرید": 2213,
      "شدش": 2214,
      "بودم": 2215,
      "کردش": 2216,
      "شمرد": 2217,
      "بسپ": 2218,
      "##هنر": 2219,
      "ماهی": 2220,
      "مهره": 2221,
      "بیارای": 2222,
      "شنود": 2223,
      "جوینده": 2224,
      "خدنگ": 2225,
      "نبودش": 2226,
      "بگویش": 2227,
      "فروغ": 2228,
      "آراست": 2229,
      "آنگهی": 2230,
      "عنبر": 2231,
      "بگسترد": 2232,
      "بوس": 2233,
      "جشن": 2234,
      "خشنود": 2235,
      "مج": 2236,
      "نار": 2237,
      "وت": 2238,
      "پال": 2239,
      "##جهان": 2240,
      "##امید": 2241,
      "نیار": 2242,
      "تاو": 2243,
      "گرای": 2244,
      "گشتی": 2245,
      "دارید": 2246,
      "باران": 2247,
      "شمر": 2248,
      "آرایش": 2249,
      "نزدیکی": 2250,
      "ستام": 2251,
      "زنی": 2252,
      "بمالید": 2253,
      "پراگند": 2254,
      "پیوسته": 2255,
      "تگ": 2256,
      "دوده": 2257,
      "سینه": 2258,
      "شان": 2259,
      "ناد": 2260,
      "##اخ": 2261,
      "##نین": 2262,
      "##نوس": 2263,
      "##وج": 2264,
      "##خوار": 2265,
      "بروم": 2266,
      "پرهنر": 2267,
      "نامش": 2268,
      "یکیست": 2269,
      "خرید": 2270,
      "افسون": 2271,
      "کنداوران": 2272,
      "تنگی": 2273,
      "مردمی": 2274,
      "بما": 2275,
      "##ژده": 2276,
      "ریختند": 2277,
      "بدرگاه": 2278,
      "هندوستان": 2279,
      "انگشت": 2280,
      "کارآگهان": 2281,
      "حریر": 2282,
      "دون": 2283,
      "نع": 2284,
      "گزار": 2285,
      "##شب": 2286,
      "##ویز": 2287,
      "باشید": 2288,
      "بیام": 2289,
      "بیشی": 2290,
      "فرنگی": 2291,
      "اندرز": 2292,
      "پرس": 2293,
      "##سره": 2294,
      "بگز": 2295,
      "بگیر": 2296,
      "بکوشید": 2297,
      "نوشته": 2298,
      "میسره": 2299,
      "سوگ": 2300,
      "آورند": 2301,
      "چشمش": 2302,
      "نهانی": 2303,
      "فرنگیس": 2304,
      "ال": 2305,
      "خج": 2306,
      "دش": 2307,
      "رک": 2308,
      "شکن": 2309,
      "ماست": 2310,
      "##سگال": 2311,
      "اندرآ": 2312,
      "پرهیز": 2313,
      "دلار": 2314,
      "منی": 2315,
      "ببا": 2316,
      "آبنوس": 2317,
      "پهلوانی": 2318,
      "ناگهان": 2319,
      "بلندی": 2320,
      "نداری": 2321,
      "فزود": 2322,
      "پذیرفت": 2323,
      "ناسز": 2324,
      "خرا": 2325,
      "زاده": 2326,
      "سلم": 2327,
      "لعل": 2328,
      "کیم": 2329,
      "کیش": 2330,
      "##شگر": 2331,
      "##ژاد": 2332,
      "##خون": 2333,
      "##جیر": 2334,
      "بری": 2335,
      "برج": 2336,
      "بهانه": 2337,
      "بیکار": 2338,
      "گره": 2339,
      "آمدن": 2340,
      "##داران": 2341,
      "آرای": 2342,
      "دهید": 2343,
      "یزدگرد": 2344,
      "روشنایی": 2345,
      "وگرنه": 2346,
      "بیاراستی": 2347,
      "فروماند": 2348,
      "ناپاک": 2349,
      "برگرفتند": 2350,
      "بشمشیر": 2351,
      "گروگان": 2352,
      "بیگناه": 2353,
      "خنک": 2354,
      "پرنیان": 2355,
      "خجسته": 2356,
      "دشوار": 2357,
      "تواند": 2358,
      "سار": 2359,
      "عر": 2360,
      "مشو": 2361,
      "نظ": 2362,
      "یمن": 2363,
      "##دگر": 2364,
      "##یا": 2365,
      "همر": 2366,
      "بدسگال": 2367,
      "باشم": 2368,
      "بیاد": 2369,
      "##یزبان": 2370,
      "دستش": 2371,
      "بپیر": 2372,
      "بکشتند": 2373,
      "آوردگه": 2374,
      "ستود": 2375,
      "بلشکر": 2376,
      "گرزه": 2377,
      "دلیری": 2378,
      "دامن": 2379,
      "پرداخت": 2380,
      "منشور": 2381,
      "زیردستان": 2382,
      "کدامست": 2383,
      "گستردنی": 2384,
      "بامد": 2385,
      "دوش": 2386,
      "قید": 2387,
      "نور": 2388,
      "نعل": 2389,
      "چگونه": 2390,
      "گا": 2391,
      "گس": 2392,
      "برب": 2393,
      "بدری": 2394,
      "درای": 2395,
      "درمان": 2396,
      "گفتا": 2397,
      "سپس": 2398,
      "##زدار": 2399,
      "نبرده": 2400,
      "اینک": 2401,
      "##الی": 2402,
      "بازو": 2403,
      "دیوار": 2404,
      "آری": 2405,
      "ماهوی": 2406,
      "میل": 2407,
      "جاماسپ": 2408,
      "آزرم": 2409,
      "بتوران": 2410,
      "خواری": 2411,
      "نکوه": 2412,
      "همچنین": 2413,
      "پارسی": 2414,
      "بامداد": 2415,
      "بمن": 2416,
      "فت": 2417,
      "وک": 2418,
      "##نهان": 2419,
      "##وپ": 2420,
      "##واست": 2421,
      "برای": 2422,
      "همیدون": 2423,
      "بدم": 2424,
      "بیست": 2425,
      "بیاز": 2426,
      "درش": 2427,
      "یکدگر": 2428,
      "سپیده": 2429,
      "اندرست": 2430,
      "دادی": 2431,
      "سپاهش": 2432,
      "افز": 2433,
      "دانست": 2434,
      "تری": 2435,
      "رنجه": 2436,
      "بلا": 2437,
      "گلاب": 2438,
      "یاران": 2439,
      "##یختند": 2440,
      "##افه": 2441,
      "ندانی": 2442,
      "پادشاست": 2443,
      "شکسته": 2444,
      "زیبای": 2445,
      "خارا": 2446,
      "خسروانی": 2447,
      "نظاره": 2448,
      "آیم": 2449,
      "دد": 2450,
      "رهی": 2451,
      "لختی": 2452,
      "مار": 2453,
      "##رغ": 2454,
      "##کشید": 2455,
      "##ذیر": 2456,
      "##ژنگ": 2457,
      "##ندخت": 2458,
      "کهان": 2459,
      "بودنی": 2460,
      "##ابلی": 2461,
      "کنان": 2462,
      "مرده": 2463,
      "##اکن": 2464,
      "بخشید": 2465,
      "چهار": 2466,
      "برآر": 2467,
      "دارنده": 2468,
      "گیا": 2469,
      "بادی": 2470,
      "بزه": 2471,
      "##شنید": 2472,
      "سیندخت": 2473,
      "شمع": 2474,
      "زنهار": 2475,
      "ناخ": 2476,
      "آیی": 2477,
      "برادرش": 2478,
      "تبه": 2479,
      "کهتران": 2480,
      "بترسید": 2481,
      "بازگردد": 2482,
      "برافروخت": 2483,
      "آلت": 2484,
      "افروز": 2485,
      "جفا": 2486,
      "زب": 2487,
      "لاله": 2488,
      "مپ": 2489,
      "مبر": 2490,
      "مگوی": 2491,
      "ناک": 2492,
      "وار": 2493,
      "وفا": 2494,
      "##چه": 2495,
      "##وری": 2496,
      "شاها": 2497,
      "بباد": 2498,
      "ببرید": 2499,
      "بگشای": 2500,
      "برآم": 2501,
      "بردی": 2502,
      "آفریننده": 2503,
      "آرند": 2504,
      "بشنوی": 2505,
      "سراف": 2506,
      "##هایی": 2507,
      "تیرگی": 2508,
      "کشورش": 2509,
      "فراخ": 2510,
      "گمانی": 2511,
      "مادرش": 2512,
      "برنهادند": 2513,
      "گرازان": 2514,
      "عقاب": 2515,
      "رکیب": 2516,
      "رسان": 2517,
      "هشی": 2518,
      "پشنگ": 2519,
      "کرم": 2520,
      "گون": 2521,
      "گنگ": 2522,
      "##مبر": 2523,
      "##خند": 2524,
      "بریده": 2525,
      "سپارم": 2526,
      "چنینست": 2527,
      "دیدگان": 2528,
      "تنم": 2529,
      "پیراه": 2530,
      "بکند": 2531,
      "بجنبید": 2532,
      "نوشتند": 2533,
      "میغ": 2534,
      "نگیر": 2535,
      "فرزان": 2536,
      "بتو": 2537,
      "گشسب": 2538,
      "کهتری": 2539,
      "یابم": 2540,
      "گذار": 2541,
      "نویس": 2542,
      "بیچار": 2543,
      "انگه": 2544,
      "دهان": 2545,
      "رد": 2546,
      "زل": 2547,
      "زنگ": 2548,
      "هجیر": 2549,
      "##که": 2550,
      "برابر": 2551,
      "نبید": 2552,
      "دادن": 2553,
      "بپوش": 2554,
      "گیهان": 2555,
      "بزیر": 2556,
      "گوس": 2557,
      "بسود": 2558,
      "میانش": 2559,
      "بهرامشاه": 2560,
      "گرانمایگان": 2561,
      "موبدی": 2562,
      "ندیدی": 2563,
      "نکو": 2564,
      "خوانی": 2565,
      "سیمین": 2566,
      "فریاد": 2567,
      "بخواهم": 2568,
      "نیرو": 2569,
      "نکردی": 2570,
      "طلخند": 2571,
      "چارپای": 2572,
      "حصار": 2573,
      "هشیوار": 2574,
      "فال": 2575,
      "مور": 2576,
      "میش": 2577,
      "مبین": 2578,
      "کشد": 2579,
      "##هزار": 2580,
      "چوگان": 2581,
      "##گروه": 2582,
      "بگو": 2583,
      "##اسود": 2584,
      "##یزم": 2585,
      "شهری": 2586,
      "بپیم": 2587,
      "مراست": 2588,
      "آفریدون": 2589,
      "بسوخت": 2590,
      "پاسبان": 2591,
      "برگست": 2592,
      "بشنود": 2593,
      "کشیدن": 2594,
      "بدیدار": 2595,
      "روا": 2596,
      "هنرها": 2597,
      "ویسه": 2598,
      "گسترید": 2599,
      "ببودند": 2600,
      "بشتا": 2601,
      "فغفور": 2602,
      "##وپین": 2603,
      "اشک": 2604,
      "افروخت": 2605,
      "خشت": 2606,
      "خاور": 2607,
      "خیزد": 2608,
      "دفت": 2609,
      "رس": 2610,
      "شاید": 2611,
      "شوید": 2612,
      "عم": 2613,
      "مگ": 2614,
      "ناسپ": 2615,
      "وران": 2616,
      "کاه": 2617,
      "##زنش": 2618,
      "برنگ": 2619,
      "راغ": 2620,
      "سرزنش": 2621,
      "##هرام": 2622,
      "پرگ": 2623,
      "پرسید": 2624,
      "خورده": 2625,
      "بباش": 2626,
      "کاروان": 2627,
      "کارکرد": 2628,
      "بپیران": 2629,
      "برآرم": 2630,
      "اسیر": 2631,
      "کزیشان": 2632,
      "فرستد": 2633,
      "نیکویی": 2634,
      "##منش": 2635,
      "کمتر": 2636,
      "سالیان": 2637,
      "گرفتار": 2638,
      "موج": 2639,
      "مرزبان": 2640,
      "سراینده": 2641,
      "تاراج": 2642,
      "رودابه": 2643,
      "یله": 2644,
      "ببینم": 2645,
      "سیمرغ": 2646,
      "بیابی": 2647,
      "هاماوران": 2648,
      "جادوی": 2649,
      "جوشان": 2650,
      "##فزود": 2651,
      "انباز": 2652,
      "انبوه": 2653,
      "خستگی": 2654,
      "کاویانی": 2655,
      "بق": 2656,
      "تژ": 2657,
      "تلخ": 2658,
      "ریز": 2659,
      "زنگه": 2660,
      "فگنده": 2661,
      "میر": 2662,
      "مبا": 2663,
      "ناه": 2664,
      "نتر": 2665,
      "گاز": 2666,
      "گشن": 2667,
      "##بفت": 2668,
      "بروز": 2669,
      "باستان": 2670,
      "بیشتر": 2671,
      "انداخت": 2672,
      "نهم": 2673,
      "##سیح": 2674,
      "کنیز": 2675,
      "ایست": 2676,
      "بخور": 2677,
      "گشتم": 2678,
      "بنام": 2679,
      "مران": 2680,
      "بدانش": 2681,
      "آبروی": 2682,
      "بازوی": 2683,
      "زربفت": 2684,
      "میگسار": 2685,
      "کمین": 2686,
      "گویا": 2687,
      "بندگی": 2688,
      "گرفتش": 2689,
      "ناگز": 2690,
      "وزانجا": 2691,
      "زرینه": 2692,
      "بیاراسته": 2693,
      "ساختن": 2694,
      "هنرمند": 2695,
      "آسوده": 2696,
      "بگریست": 2697,
      "نماید": 2698,
      "مستمند": 2699,
      "چوبشنید": 2700,
      "گشادند": 2701,
      "بگیرد": 2702,
      "جمشید": 2703,
      "نویسنده": 2704,
      "کنیزک": 2705,
      "ناگزیر": 2706,
      "خوشن": 2707,
      "دوز": 2708,
      "شیده": 2709,
      "مسیح": 2710,
      "نس": 2711,
      "ژوپین": 2712,
      "کشم": 2713,
      "گرا": 2714,
      "##یس": 2715,
      "##اسی": 2716,
      "##گنی": 2717,
      "##تال": 2718,
      "اندیش": 2719,
      "نیاک": 2720,
      "پرند": 2721,
      "بباز": 2722,
      "دیدش": 2723,
      "رویه": 2724,
      "داراب": 2725,
      "باده": 2726,
      "نشیند": 2727,
      "بجوی": 2728,
      "جانش": 2729,
      "کنداور": 2730,
      "بایدت": 2731,
      "##ذرفت": 2732,
      "جویبار": 2733,
      "نباشی": 2734,
      "داستانها": 2735,
      "افسری": 2736,
      "بایوان": 2737,
      "بگردد": 2738,
      "چندانک": 2739,
      "لهاک": 2740,
      "نگونسار": 2741,
      "بایرانیان": 2742,
      "آذرگش": 2743,
      "بگذری": 2744,
      "غارت": 2745,
      "سرآید": 2746,
      "انوشه": 2747,
      "فیلسو": 2748,
      "لرزان": 2749,
      "برگستوان": 2750,
      "تژاو": 2751,
      "اهر": 2752,
      "اهرمن": 2753,
      "سگال": 2754,
      "عمود": 2755,
      "هستی": 2756,
      "پایه": 2757,
      "یوز": 2758,
      "##شنده": 2759,
      "##فرا": 2760,
      "##طوس": 2761,
      "##پذیر": 2762,
      "##ادل": 2763,
      "همگروه": 2764,
      "راستان": 2765,
      "نامی": 2766,
      "نهید": 2767,
      "گنجی": 2768,
      "##موده": 2769,
      "پیری": 2770,
      "بکام": 2771,
      "پهلو": 2772,
      "بیاری": 2773,
      "ناامید": 2774,
      "سوک": 2775,
      "ندیدست": 2776,
      "بخشایش": 2777,
      "برکشیدند": 2778,
      "کودکان": 2779,
      "هفتاد": 2780,
      "آهنین": 2781,
      "پرخاشخر": 2782,
      "هیتال": 2783,
      "آزمود": 2784,
      "پرآب": 2785,
      "قیدافه": 2786,
      "افزون": 2787,
      "تریاک": 2788,
      "گوسفند": 2789,
      "فیلسوف": 2790,
      "دویست": 2791,
      "زع": 2792,
      "طیس": 2793,
      "فور": 2794,
      "مح": 2795,
      "##مت": 2796,
      "##کند": 2797,
      "##وب": 2798,
      "##فون": 2799,
      "کهرم": 2800,
      "بیخ": 2801,
      "بیابد": 2802,
      "درآمد": 2803,
      "جهانگیر": 2804,
      "اینست": 2805,
      "##یکی": 2806,
      "بارد": 2807,
      "بردار": 2808,
      "اویست": 2809,
      "نخواند": 2810,
      "##فشارد": 2811,
      "نشانی": 2812,
      "یارد": 2813,
      "چرب": 2814,
      "باشیم": 2815,
      "صدهزار": 2816,
      "بگردان": 2817,
      "##شوب": 2818,
      "بنواختش": 2819,
      "##فزای": 2820,
      "ریگ": 2821,
      "بابک": 2822,
      "ناسزا": 2823,
      "خوشنواز": 2824,
      "نیاکان": 2825,
      "طیسفون": 2826,
      "خط": 2827,
      "سق": 2828,
      "ساسان": 2829,
      "شش": 2830,
      "قن": 2831,
      "لشگر": 2832,
      "میزبان": 2833,
      "نسپ": 2834,
      "نساز": 2835,
      "نشمرد": 2836,
      "پت": 2837,
      "پود": 2838,
      "چک": 2839,
      "گام": 2840,
      "##شفته": 2841,
      "##خورد": 2842,
      "##تون": 2843,
      "##ستگی": 2844,
      "برستم": 2845,
      "برفروخت": 2846,
      "بهنگام": 2847,
      "همش": 2848,
      "##راک": 2849,
      "اندک": 2850,
      "فرهاد": 2851,
      "اندرآمد": 2852,
      "##زدان": 2853,
      "##شکده": 2854,
      "##فران": 2855,
      "بنشاند": 2856,
      "بنشاندند": 2857,
      "داریم": 2858,
      "کسان": 2859,
      "کشتگان": 2860,
      "نگفت": 2861,
      "خسروپرست": 2862,
      "امشب": 2863,
      "برنشاند": 2864,
      "تیزی": 2865,
      "زده": 2866,
      "آزرده": 2867,
      "دیگری": 2868,
      "بمهر": 2869,
      "سازم": 2870,
      "شمشیرزن": 2871,
      "سپردم": 2872,
      "سزاست": 2873,
      "مغزش": 2874,
      "هندوان": 2875,
      "نیرنگ": 2876,
      "بگذاشتی": 2877,
      "نماینده": 2878,
      "زیردست": 2879,
      "آنگاه": 2880,
      "آویختن": 2881,
      "##اکنون": 2882,
      "دفتر": 2883,
      "بتن": 2884,
      "دشن": 2885,
      "غو": 2886,
      "غری": 2887,
      "مام": 2888,
      "نوان": 2889,
      "هیش": 2890,
      "##گشت": 2891,
      "نهفته": 2892,
      "بکار": 2893,
      "بجوید": 2894,
      "روانم": 2895,
      "نواز": 2896,
      "داشتند": 2897,
      "یافتند": 2898,
      "بتان": 2899,
      "شنیدی": 2900,
      "ندارند": 2901,
      "مغفر": 2902,
      "پدیدار": 2903,
      "اژدهای": 2904,
      "هوشمند": 2905,
      "یافتم": 2906,
      "گستاخ": 2907,
      "ببندد": 2908,
      "پوشش": 2909,
      "بشمرد": 2910,
      "پیغمبر": 2911,
      "بگسل": 2912,
      "کیمیا": 2913,
      "بیچارگی": 2914,
      "زعفران": 2915,
      "دهن": 2916,
      "رهایی": 2917,
      "سستی": 2918,
      "نشد": 2919,
      "ود": 2920,
      "چیره": 2921,
      "کاکنون": 2922,
      "##اچ": 2923,
      "برس": 2924,
      "بهام": 2925,
      "بدشت": 2926,
      "باختر": 2927,
      "چوپ": 2928,
      "دران": 2929,
      "درنده": 2930,
      "نبند": 2931,
      "دستگیر": 2932,
      "تنی": 2933,
      "آبگیر": 2934,
      "رزمساز": 2935,
      "بجوشید": 2936,
      "بجستند": 2937,
      "برگاشت": 2938,
      "خواهش": 2939,
      "ستور": 2940,
      "دردمند": 2941,
      "بشنو": 2942,
      "رخسار": 2943,
      "پدرود": 2944,
      "ناچ": 2945,
      "رسیده": 2946,
      "استوار": 2947,
      "بینادل": 2948,
      "خاتون": 2949,
      "داماد": 2950,
      "برگزین": 2951,
      "کابلستان": 2952,
      "نیکویها": 2953,
      "گازر": 2954,
      "دوزخ": 2955,
      "قنوج": 2956,
      "هیشوی": 2957,
      "جاه": 2958,
      "حم": 2959,
      "خنده": 2960,
      "خامش": 2961,
      "رده": 2962,
      "زاو": 2963,
      "سند": 2964,
      "سمند": 2965,
      "فس": 2966,
      "هل": 2967,
      "##کو": 2968,
      "##خوی": 2969,
      "##چنگ": 2970,
      "برنج": 2971,
      "##ادم": 2972,
      "همت": 2973,
      "بافته": 2974,
      "درین": 2975,
      "پیامی": 2976,
      "توایم": 2977,
      "##ندها": 2978,
      "پیشین": 2979,
      "بگودرز": 2980,
      "بخشم": 2981,
      "مهد": 2982,
      "گوا": 2983,
      "بکش": 2984,
      "##اختشان": 2985,
      "نوب": 2986,
      "ستون": 2987,
      "پیروزبخت": 2988,
      "کشیده": 2989,
      "برنه": 2990,
      "ارغ": 2991,
      "شنیدند": 2992,
      "بیداردل": 2993,
      "ساختی": 2994,
      "بماندند": 2995,
      "بخشنده": 2996,
      "کمندی": 2997,
      "ببندم": 2998,
      "نیمروز": 2999,
      "خشکی": 3000,
      "آهنگران": 3001,
      "هراس": 3002,
      "نتوان": 3003,
      "اشتر": 3004,
      "زاغ": 3005,
      "عود": 3006,
      "قر": 3007,
      "مژده": 3008,
      "کاس": 3009,
      "##یاد": 3010,
      "##گنج": 3011,
      "##لس": 3012,
      "برسم": 3013,
      "سرن": 3014,
      "بودن": 3015,
      "##یمن": 3016,
      "ببرم": 3017,
      "پیشرو": 3018,
      "کارها": 3019,
      "##اسب": 3020,
      "بخست": 3021,
      "بپوشد": 3022,
      "برآس": 3023,
      "اسکندر": 3024,
      "تاجدار": 3025,
      "رنجها": 3026,
      "بجان": 3027,
      "آیدم": 3028,
      "نخوان": 3029,
      "خواهر": 3030,
      "کمی": 3031,
      "پایش": 3032,
      "شنیده": 3033,
      "خودکام": 3034,
      "کامگار": 3035,
      "زدی": 3036,
      "پاداش": 3037,
      "فرستادگان": 3038,
      "کمربند": 3039,
      "یاری": 3040,
      "بگذرم": 3041,
      "نداریم": 3042,
      "سازیم": 3043,
      "مغاک": 3044,
      "بایسته": 3045,
      "ایمنی": 3046,
      "زیبا": 3047,
      "کودکی": 3048,
      "بهشتم": 3049,
      "دختران": 3050,
      "برگشادند": 3051,
      "بمردی": 3052,
      "برتخت": 3053,
      "برفشاند": 3054,
      "برافراخت": 3055,
      "هراسان": 3056,
      "غلام": 3057,
      "بسپرد": 3058,
      "نیارست": 3059,
      "نکوهش": 3060,
      "بهامون": 3061,
      "زاول": 3062,
      "افتاد": 3063,
      "بورد": 3064,
      "جنب": 3065,
      "سخ": 3066,
      "سنج": 3067,
      "لگ": 3068,
      "مای": 3069,
      "ممان": 3070,
      "نست": 3071,
      "وم": 3072,
      "پندها": 3073,
      "کبود": 3074,
      "##داز": 3075,
      "##لاب": 3076,
      "##طر": 3077,
      "بربر": 3078,
      "همو": 3079,
      "بابر": 3080,
      "بیجان": 3081,
      "درجهان": 3082,
      "فروه": 3083,
      "پرویز": 3084,
      "دلپذیر": 3085,
      "##وزی": 3086,
      "مردمان": 3087,
      "بنیر": 3088,
      "تختش": 3089,
      "سیستان": 3090,
      "نیکخواه": 3091,
      "نگوید": 3092,
      "نشستن": 3093,
      "گلستان": 3094,
      "بگویی": 3095,
      "بپرسیدش": 3096,
      "خوانند": 3097,
      "بگریخت": 3098,
      "کرسی": 3099,
      "گستوان": 3100,
      "بترسم": 3101,
      "آموخت": 3102,
      "شاهنشهان": 3103,
      "بپردخت": 3104,
      "بپرداز": 3105,
      "پرورده": 3106,
      "بازگشتن": 3107,
      "بخواست": 3108,
      "شوربخت": 3109,
      "پژم": 3110,
      "هرمزد": 3111,
      "بسازیم": 3112,
      "غرقه": 3113,
      "نزاد": 3114,
      "خریدار": 3115,
      "انگشتری": 3116,
      "سوگوار": 3117,
      "دلارای": 3118,
      "میرین": 3119,
      "جه": 3120,
      "جو": 3121,
      "دهر": 3122,
      "رهان": 3123,
      "شیرد": 3124,
      "قلم": 3125,
      "ماد": 3126,
      "هیر": 3127,
      "کب": 3128,
      "یاور": 3129,
      "##مزد": 3130,
      "##جد": 3131,
      "##جمان": 3132,
      "##ایند": 3133,
      "بیایم": 3134,
      "##نگوی": 3135,
      "درکشید": 3136,
      "سرود": 3137,
      "فروش": 3138,
      "##گری": 3139,
      "ببایست": 3140,
      "نبشتند": 3141,
      "##الود": 3142,
      "##تری": 3143,
      "رویان": 3144,
      "##ایدار": 3145,
      "برآسود": 3146,
      "خروس": 3147,
      "ترجمان": 3148,
      "بسوی": 3149,
      "نیستی": 3150,
      "خواستم": 3151,
      "نوند": 3152,
      "کامروز": 3153,
      "آتشکده": 3154,
      "داشتم": 3155,
      "یافته": 3156,
      "گلشن": 3157,
      "گوهرنگار": 3158,
      "بتخت": 3159,
      "برکش": 3160,
      "تازان": 3161,
      "گردنش": 3162,
      "گوشه": 3163,
      "تارک": 3164,
      "باشند": 3165,
      "نرگس": 3166,
      "افسرش": 3167,
      "گشاید": 3168,
      "گشسپ": 3169,
      "توانی": 3170,
      "همچون": 3171,
      "نکردند": 3172,
      "بخردی": 3173,
      "##باران": 3174,
      "بهاران": 3175,
      "پردخته": 3176,
      "پیکرش": 3177,
      "نشنید": 3178,
      "برداشتی": 3179,
      "آهرمنی": 3180,
      "آهرمنست": 3181,
      "بخوردند": 3182,
      "پشیمانی": 3183,
      "زبرجد": 3184,
      "تگاور": 3185,
      "پرسش": 3186,
      "پیراهن": 3187,
      "مبیناد": 3188,
      "آخر": 3189,
      "تذر": 3190,
      "توشه": 3191,
      "تخوار": 3192,
      "جن": 3193,
      "جهن": 3194,
      "جشنگ": 3195,
      "دایه": 3196,
      "سگ": 3197,
      "شت": 3198,
      "پا": 3199,
      "پراز": 3200,
      "پنهان": 3201,
      "##یین": 3202,
      "##این": 3203,
      "##اقان": 3204,
      "##گذشت": 3205,
      "##طخر": 3206,
      "برشد": 3207,
      "همواره": 3208,
      "انده": 3209,
      "گروی": 3210,
      "پرستان": 3211,
      "نهی": 3212,
      "دادند": 3213,
      "پسش": 3214,
      "لشکرست": 3215,
      "رویش": 3216,
      "خرگاه": 3217,
      "باریک": 3218,
      "دانندگان": 3219,
      "فرستیم": 3220,
      "رخان": 3221,
      "پایگاه": 3222,
      "بیارم": 3223,
      "کلباد": 3224,
      "سوفزای": 3225,
      "خواندی": 3226,
      "آتشی": 3227,
      "خدیو": 3228,
      "شدندش": 3229,
      "آیند": 3230,
      "جستند": 3231,
      "سرانشان": 3232,
      "برکشد": 3233,
      "##افات": 3234,
      "نرسی": 3235,
      "برتری": 3236,
      "برترست": 3237,
      "همچنان": 3238,
      "پیچد": 3239,
      "نبینند": 3240,
      "خرمی": 3241,
      "بشهر": 3242,
      "پولادوند": 3243,
      "نمانی": 3244,
      "درخشنده": 3245,
      "مکران": 3246,
      "مکافات": 3247,
      "پهنای": 3248,
      "بیچاره": 3249,
      "ببالا": 3250,
      "بکردند": 3251,
      "برآویختند": 3252,
      "خزر": 3253,
      "پوشیدنی": 3254,
      "شبیخون": 3255,
      "برومند": 3256,
      "بدریا": 3257,
      "ناهید": 3258,
      "سخنگوی": 3259,
      "جشنگاه": 3260,
      "اب": 3261,
      "الم": 3262,
      "رشک": 3263,
      "عبیر": 3264,
      "غرم": 3265,
      "مزن": 3266,
      "هز": 3267,
      "وآ": 3268,
      "وپ": 3269,
      "کید": 3270,
      "##ندیش": 3271,
      "بدش": 3272,
      "گفتش": 3273,
      "پیگار": 3274,
      "سپارد": 3275,
      "##استند": 3276,
      "##فره": 3277,
      "کارگر": 3278,
      "دادم": 3279,
      "دادش": 3280,
      "لشکرگه": 3281,
      "بنیاد": 3282,
      "بپی": 3283,
      "گنجها": 3284,
      "بسال": 3285,
      "دهیم": 3286,
      "بفرجام": 3287,
      "گویند": 3288,
      "روزگاری": 3289,
      "جوانان": 3290,
      "بتاب": 3291,
      "برفتی": 3292,
      "برفتم": 3293,
      "درنگی": 3294,
      "فزونست": 3295,
      "راندند": 3296,
      "کرگ": 3297,
      "نیمه": 3298,
      "دختری": 3299,
      "##بارگی": 3300,
      "خورشها": 3301,
      "خوشاب": 3302,
      "گردیه": 3303,
      "بیهوده": 3304,
      "مگردان": 3305,
      "بگزید": 3306,
      "نوروز": 3307,
      "سرافگنده": 3308,
      "فیلسوفان": 3309,
      "حمله": 3310,
      "ارغوان": 3311,
      "لگام": 3312,
      "شیردل": 3313,
      "حل": 3314,
      "خیر": 3315,
      "دز": 3316,
      "رخت": 3317,
      "شخ": 3318,
      "ماده": 3319,
      "مانی": 3320,
      "نف": 3321,
      "گداز": 3322,
      "##باره": 3323,
      "##خواند": 3324,
      "##زاده": 3325,
      "##طاس": 3326,
      "برپای": 3327,
      "ازوی": 3328,
      "##ایون": 3329,
      "##راست": 3330,
      "بیزدان": 3331,
      "گراینده": 3332,
      "بخم": 3333,
      "بخنجر": 3334,
      "##شیدن": 3335,
      "جنگاوران": 3336,
      "بنال": 3337,
      "بنمای": 3338,
      "بنالید": 3339,
      "داران": 3340,
      "بدانید": 3341,
      "بزین": 3342,
      "کزویست": 3343,
      "رایت": 3344,
      "شیرمرد": 3345,
      "بکوه": 3346,
      "آرمید": 3347,
      "کوهه": 3348,
      "بفرمای": 3349,
      "بفروخت": 3350,
      "بلور": 3351,
      "مهران": 3352,
      "سالخورد": 3353,
      "بیارند": 3354,
      "نات": 3355,
      "نشستنگه": 3356,
      "جویان": 3357,
      "جویند": 3358,
      "بتیر": 3359,
      "گردنکش": 3360,
      "گذشتن": 3361,
      "شاوران": 3362,
      "سپردند": 3363,
      "نیازی": 3364,
      "ببینیم": 3365,
      "گسترده": 3366,
      "دخترش": 3367,
      "خنجرگ": 3368,
      "هیونان": 3369,
      "نابسود": 3370,
      "کوته": 3371,
      "نمایم": 3372,
      "کتایون": 3373,
      "اورنگ": 3374,
      "نپیچد": 3375,
      "مجلس": 3376,
      "پالیز": 3377,
      "منیژه": 3378,
      "خراسان": 3379,
      "گسسته": 3380,
      "بپیمود": 3381,
      "بقلب": 3382,
      "مسیحا": 3383,
      "شتافت": 3384,
      "الماس": 3385,
      "آسی": 3386,
      "بف": 3387,
      "تش": 3388,
      "تشت": 3389,
      "تبر": 3390,
      "خیز": 3391,
      "زیست": 3392,
      "زابلی": 3393,
      "شسته": 3394,
      "مژه": 3395,
      "نشک": 3396,
      "نفر": 3397,
      "پشه": 3398,
      "##یبد": 3399,
      "##زاد": 3400,
      "##چین": 3401,
      "##پیش": 3402,
      "##ینوش": 3403,
      "##ختن": 3404,
      "منند": 3405,
      "##نجیر": 3406,
      "هرجای": 3407,
      "پیشم": 3408,
      "بگشتند": 3409,
      "کاردان": 3410,
      "##ترست": 3411,
      "##ایدت": 3412,
      "بارمان": 3413,
      "نیکبخت": 3414,
      "##اشتی": 3415,
      "برگش": 3416,
      "ستان": 3417,
      "نگویی": 3418,
      "شنبل": 3419,
      "سوختند": 3420,
      "تیرباران": 3421,
      "هواست": 3422,
      "گوهران": 3423,
      "رازها": 3424,
      "نباش": 3425,
      "آنکه": 3426,
      "بستر": 3427,
      "مشکوی": 3428,
      "نخواهیم": 3429,
      "بدادند": 3430,
      "نیرزد": 3431,
      "ایزدیست": 3432,
      "چوبینه": 3433,
      "گرازه": 3434,
      "بمانی": 3435,
      "قلبگاه": 3436,
      "فریبنده": 3437,
      "اورمزد": 3438,
      "نجویم": 3439,
      "وتخت": 3440,
      "نعره": 3441,
      "##زداران": 3442,
      "عماری": 3443,
      "ناسپاس": 3444,
      "آذرگشسپ": 3445,
      "اهرن": 3446,
      "فسوس": 3447,
      "جهود": 3448,
      "شنبلید": 3449,
      "آشفته": 3450,
      "اص": 3451,
      "جد": 3452,
      "جر": 3453,
      "خارستان": 3454,
      "شهد": 3455,
      "شطر": 3456,
      "طب": 3457,
      "مخوان": 3458,
      "نتاب": 3459,
      "ون": 3460,
      "##خیم": 3461,
      "##تش": 3462,
      "بیفشارد": 3463,
      "سروش": 3464,
      "پرموده": 3465,
      "کنام": 3466,
      "ببهرام": 3467,
      "دوید": 3468,
      "بنوی": 3469,
      "رویینه": 3470,
      "بازآمد": 3471,
      "بارید": 3472,
      "دانای": 3473,
      "فرستی": 3474,
      "خونین": 3475,
      "بکشتی": 3476,
      "کوهی": 3477,
      "بجوش": 3478,
      "روانت": 3479,
      "نوا": 3480,
      "میخ": 3481,
      "نگشاد": 3482,
      "بیارد": 3483,
      "گرفتن": 3484,
      "بدیدش": 3485,
      "غمگین": 3486,
      "داشتن": 3487,
      "دشمنی": 3488,
      "برخورد": 3489,
      "گودرزیان": 3490,
      "اخترشن": 3491,
      "برزن": 3492,
      "گمانم": 3493,
      "آنچه": 3494,
      "بگرز": 3495,
      "بزرگست": 3496,
      "##دیگر": 3497,
      "نیامدش": 3498,
      "ترکش": 3499,
      "جهاندیدگان": 3500,
      "بنواختشان": 3501,
      "بماناد": 3502,
      "سپنجی": 3503,
      "درخشان": 3504,
      "مانند": 3505,
      "هشتم": 3506,
      "کتف": 3507,
      "فگندند": 3508,
      "کشوادگان": 3509,
      "ببخشود": 3510,
      "مزدک": 3511,
      "پرورش": 3512,
      "برآمیختند": 3513,
      "فرزانگان": 3514,
      "بشتافتند": 3515,
      "بباشیم": 3516,
      "بخورشید": 3517,
      "گراید": 3518,
      "پژمرده": 3519,
      "تذرو": 3520,
      "آذ": 3521,
      "بور": 3522,
      "بوستان": 3523,
      "ختن": 3524,
      "ریش": 3525,
      "مگیر": 3526,
      "چشید": 3527,
      "چاچ": 3528,
      "کوی": 3529,
      "گبر": 3530,
      "##ریم": 3531,
      "##اق": 3532,
      "##نار": 3533,
      "##غد": 3534,
      "##انیان": 3535,
      "بریم": 3536,
      "برشاه": 3537,
      "هما": 3538,
      "##ویر": 3539,
      "##ونیز": 3540,
      "بیاسود": 3541,
      "درآ": 3542,
      "شاهزاده": 3543,
      "بوده": 3544,
      "بگاه": 3545,
      "سپاهست": 3546,
      "دولت": 3547,
      "##یزی": 3548,
      "کوپال": 3549,
      "بپشت": 3550,
      "بپذرفت": 3551,
      "بازآ": 3552,
      "اسیران": 3553,
      "##اوژن": 3554,
      "##سیده": 3555,
      "بردن": 3556,
      "گوشت": 3557,
      "برگرد": 3558,
      "##اختی": 3559,
      "پیلی": 3560,
      "خواستن": 3561,
      "نوید": 3562,
      "کجات": 3563,
      "نهادست": 3564,
      "گاهی": 3565,
      "##شادی": 3566,
      "یازد": 3567,
      "کمرب": 3568,
      "##گفتی": 3569,
      "بگفتار": 3570,
      "گرزهای": 3571,
      "جستی": 3572,
      "نباشم": 3573,
      "زبانش": 3574,
      "سازی": 3575,
      "آرامگاه": 3576,
      "برفتن": 3577,
      "ببینید": 3578,
      "هوشنگ": 3579,
      "نخواهی": 3580,
      "پرخرد": 3581,
      "زورمند": 3582,
      "زودی": 3583,
      "نیاطوس": 3584,
      "پنجه": 3585,
      "نپرد": 3586,
      "دیرینه": 3587,
      "بازگشتند": 3588,
      "آزمایش": 3589,
      "دوستدار": 3590,
      "مکوش": 3591,
      "بغرید": 3592,
      "خستگان": 3593,
      "بسیچید": 3594,
      "بیاموخت": 3595,
      "بباشد": 3596,
      "پذیرفتم": 3597,
      "بدسگالان": 3598,
      "فتراک": 3599,
      "بیازید": 3600,
      "مباشید": 3601,
      "دشنام": 3602,
      "قرطاس": 3603,
      "خنجرگزار": 3604,
      "شطرنج": 3605,
      "اخت": 3606,
      "زنجیر": 3607,
      "سندر": 3608,
      "شی": 3609,
      "عیب": 3610,
      "مده": 3611,
      "مپای": 3612,
      "ناید": 3613,
      "هیزم": 3614,
      "پاره": 3615,
      "گسی": 3616,
      "گسار": 3617,
      "##رخ": 3618,
      "##روش": 3619,
      "##برد": 3620,
      "##خش": 3621,
      "##لان": 3622,
      "برست": 3623,
      "برگاه": 3624,
      "##ادی": 3625,
      "ازم": 3626,
      "چوآ": 3627,
      "##شتاب": 3628,
      "درع": 3629,
      "پیشت": 3630,
      "اندرا": 3631,
      "یکسو": 3632,
      "گرین": 3633,
      "##اسخ": 3634,
      "گشتیم": 3635,
      "چونین": 3636,
      "بادپای": 3637,
      "تنت": 3638,
      "وزیشان": 3639,
      "افشاندند": 3640,
      "مهبود": 3641,
      "بردرید": 3642,
      "شیراوژن": 3643,
      "بسوزد": 3644,
      "رزمخواه": 3645,
      "ستیز": 3646,
      "ستوده": 3647,
      "بلرز": 3648,
      "جانم": 3649,
      "پاسخش": 3650,
      "سالی": 3651,
      "ناگاه": 3652,
      "رسیدی": 3653,
      "خواندش": 3654,
      "اسپی": 3655,
      "فرمانرو": 3656,
      "بتاز": 3657,
      "خردمندی": 3658,
      "هزاران": 3659,
      "هنوز": 3660,
      "دمید": 3661,
      "اختری": 3662,
      "بدادش": 3663,
      "ببخشد": 3664,
      "کره": 3665,
      "هفتواد": 3666,
      "برافشاندند": 3667,
      "بترس": 3668,
      "مویه": 3669,
      "آزموده": 3670,
      "نشنود": 3671,
      "لهراسب": 3672,
      "برفرا": 3673,
      "مهربانی": 3674,
      "همایون": 3675,
      "کاویان": 3676,
      "آراستن": 3677,
      "نادان": 3678,
      "ساروان": 3679,
      "زبون": 3680,
      "سقلاب": 3681,
      "نسپرد": 3682,
      "هلاک": 3683,
      "خودکامه": 3684,
      "سندروس": 3685,
      "آشن": 3686,
      "اغ": 3687,
      "بشادی": 3688,
      "تم": 3689,
      "توش": 3690,
      "ربود": 3691,
      "زک": 3692,
      "سمن": 3693,
      "ساج": 3694,
      "سندان": 3695,
      "شغ": 3696,
      "قبای": 3697,
      "لخت": 3698,
      "مخواه": 3699,
      "نال": 3700,
      "چامه": 3701,
      "کفت": 3702,
      "کآمد": 3703,
      "##هاست": 3704,
      "##رند": 3705,
      "##گوش": 3706,
      "##گنان": 3707,
      "##تو": 3708,
      "بهشتی": 3709,
      "بدخ": 3710,
      "بیزار": 3711,
      "انداختند": 3712,
      "فروم": 3713,
      "سپار": 3714,
      "سپاسی": 3715,
      "آمدیم": 3716,
      "گردوی": 3717,
      "ببی": 3718,
      "نبشته": 3719,
      "کارش": 3720,
      "روزه": 3721,
      "شهرها": 3722,
      "بادانش": 3723,
      "آبش": 3724,
      "رایش": 3725,
      "نشین": 3726,
      "فرستید": 3727,
      "گواست": 3728,
      "رزمجوی": 3729,
      "میوه": 3730,
      "میلاد": 3731,
      "رسیدم": 3732,
      "جامی": 3733,
      "جوانمرد": 3734,
      "دژخیم": 3735,
      "بیاویخت": 3736,
      "فزایش": 3737,
      "فزاینده": 3738,
      "##ستیهن": 3739,
      "بینند": 3740,
      "بستن": 3741,
      "پذیرد": 3742,
      "هستند": 3743,
      "بیمار": 3744,
      "بگردید": 3745,
      "پلنگان": 3746,
      "بزمگاه": 3747,
      "دستوری": 3748,
      "پنجاه": 3749,
      "گشادن": 3750,
      "بدگوهر": 3751,
      "بدنشان": 3752,
      "شناسان": 3753,
      "آسانی": 3754,
      "نشنوی": 3755,
      "درخور": 3756,
      "ریونیز": 3757,
      "خامه": 3758,
      "##ریرث": 3759,
      "نگذرد": 3760,
      "برآنم": 3761,
      "شیدوش": 3762,
      "ناکام": 3763,
      "##فراسیاب": 3764,
      "نبندد": 3765,
      "زاولستان": 3766,
      "بنیروی": 3767,
      "آسیا": 3768,
      "بلرزید": 3769,
      "اغریرث": 3770,
      "آل": 3771,
      "آگند": 3772,
      "باه": 3773,
      "تندر": 3774,
      "رب": 3775,
      "رعد": 3776,
      "سکو": 3777,
      "شبر": 3778,
      "طراز": 3779,
      "فام": 3780,
      "قف": 3781,
      "قل": 3782,
      "مصر": 3783,
      "مستی": 3784,
      "نری": 3785,
      "وف": 3786,
      "ورز": 3787,
      "کابلی": 3788,
      "##هرا": 3789,
      "##وا": 3790,
      "##آنگه": 3791,
      "##سنه": 3792,
      "##جوان": 3793,
      "بدشمن": 3794,
      "##راخ": 3795,
      "درگه": 3796,
      "سرشت": 3797,
      "فرش": 3798,
      "نیارم": 3799,
      "##هرم": 3800,
      "گرت": 3801,
      "گرسنه": 3802,
      "دلها": 3803,
      "بگوش": 3804,
      "روزبه": 3805,
      "دوستی": 3806,
      "بپژ": 3807,
      "بپوی": 3808,
      "راهی": 3809,
      "دارو": 3810,
      "بدانی": 3811,
      "وزیر": 3812,
      "بازجوی": 3813,
      "ترست": 3814,
      "خویشی": 3815,
      "بکوشد": 3816,
      "بساخت": 3817,
      "نوندی": 3818,
      "ستاد": 3819,
      "کشیدی": 3820,
      "بدیدم": 3821,
      "برنی": 3822,
      "تیزچنگ": 3823,
      "ندیدیم": 3824,
      "گلنار": 3825,
      "استخوان": 3826,
      "ساختم": 3827,
      "برکند": 3828,
      "بینید": 3829,
      "دمادم": 3830,
      "سپردی": 3831,
      "افسرست": 3832,
      "بانوان": 3833,
      "نیافت": 3834,
      "نجنبید": 3835,
      "آمل": 3836,
      "گیری": 3837,
      "بشب": 3838,
      "سرفرازان": 3839,
      "بدنژاد": 3840,
      "نابکار": 3841,
      "پرآواز": 3842,
      "کشانی": 3843,
      "بنشاختش": 3844,
      "همراه": 3845,
      "بپیراستند": 3846,
      "برآرند": 3847,
      "مادرم": 3848,
      "ناتوان": 3849,
      "فرمانروا": 3850,
      "شغاد": 3851,
      "شبرنگ": 3852,
      "رز": 3853,
      "سوز": 3854,
      "عل": 3855,
      "فشاند": 3856,
      "مساز": 3857,
      "نستیهن": 3858,
      "پایدار": 3859,
      "چل": 3860,
      "چود": 3861,
      "##ماید": 3862,
      "##شهر": 3863,
      "##قوس": 3864,
      "##ندگی": 3865,
      "برچ": 3866,
      "##ودم": 3867,
      "بدگوی": 3868,
      "بازد": 3869,
      "بیان": 3870,
      "بیفتاد": 3871,
      "پیشکار": 3872,
      "##گرگ": 3873,
      "سپرده": 3874,
      "گرش": 3875,
      "بودت": 3876,
      "توام": 3877,
      "پرسد": 3878,
      "پرمایگان": 3879,
      "آنرا": 3880,
      "خوالی": 3881,
      "آمده": 3882,
      "##یمت": 3883,
      "ببخت": 3884,
      "ببستم": 3885,
      "ایا": 3886,
      "اینت": 3887,
      "دادخواه": 3888,
      "دوال": 3889,
      "برآراست": 3890,
      "##ومید": 3891,
      "آبگون": 3892,
      "زروان": 3893,
      "دانایی": 3894,
      "بردبار": 3895,
      "رنجی": 3896,
      "بکس": 3897,
      "نیستان": 3898,
      "برگاشتند": 3899,
      "##تیغ": 3900,
      "مهرش": 3901,
      "مهرک": 3902,
      "کیند": 3903,
      "بیارید": 3904,
      "تیغها": 3905,
      "تیزت": 3906,
      "غمگسار": 3907,
      "دیگرست": 3908,
      "فرستادم": 3909,
      "بپرورد": 3910,
      "بپرسم": 3911,
      "برخیزد": 3912,
      "استاد": 3913,
      "بستند": 3914,
      "سپردن": 3915,
      "نرفتی": 3916,
      "اژدهاست": 3917,
      "بپیچی": 3918,
      "توانایی": 3919,
      "ندانند": 3920,
      "هرانگه": 3921,
      "نیمی": 3922,
      "باغبان": 3923,
      "آوریدند": 3924,
      "سیری": 3925,
      "بنگرد": 3926,
      "پردخت": 3927,
      "بخوبی": 3928,
      "##فزاید": 3929,
      "آزمای": 3930,
      "ناسود": 3931,
      "بشکست": 3932,
      "خامشی": 3933,
      "بیهشان": 3934,
      "نتابد": 3935,
      "دلارام": 3936,
      "خراج": 3937,
      "بیگناهان": 3938,
      "گاودم": 3939,
      "بدریای": 3940,
      "ناخوش": 3941,
      "فرزانگی": 3942,
      "کنداوری": 3943,
      "بگسلد": 3944,
      "کاسه": 3945,
      "جنبش": 3946,
      "فروهشته": 3947,
      "هماون": 3948,
      "بپژمرد": 3949,
      "آشوب": 3950,
      "بفگند": 3951,
      "خیل": 3952,
      "رش": 3953,
      "سده": 3954,
      "فش": 3955,
      "فسون": 3956,
      "نشم": 3957,
      "هرد": 3958,
      "پش": 3959,
      "چمن": 3960,
      "گوز": 3961,
      "گژد": 3962,
      "##نوی": 3963,
      "##سوی": 3964,
      "##لا": 3965,
      "برشک": 3966,
      "برشمرد": 3967,
      "برمنش": 3968,
      "##ینی": 3969,
      "##اهد": 3970,
      "##اهی": 3971,
      "##اها": 3972,
      "بده": 3973,
      "رابه": 3974,
      "راکه": 3975,
      "بیاور": 3976,
      "درج": 3977,
      "درشتی": 3978,
      "یکبارگی": 3979,
      "سرکش": 3980,
      "سراندر": 3981,
      "تافت": 3982,
      "گرگان": 3983,
      "توگفتی": 3984,
      "پرشتاب": 3985,
      "دلفروز": 3986,
      "منید": 3987,
      "اولاد": 3988,
      "هری": 3989,
      "آمدت": 3990,
      "نبایست": 3991,
      "##فروزد": 3992,
      "##اسای": 3993,
      "دوم": 3994,
      "دوک": 3995,
      "دوستان": 3996,
      "بخیره": 3997,
      "گشتن": 3998,
      "دستبرد": 3999,
      "بپالود": 4000,
      "##یاره": 4001,
      "سویی": 4002,
      "##ومند": 4003,
      "همانگاه": 4004,
      "مرین": 4005,
      "مریز": 4006,
      "بدانجا": 4007,
      "##شنه": 4008,
      "افگنی": 4009,
      "زرنگار": 4010,
      "تاجداران": 4011,
      "شیرگیر": 4012,
      "پیرایه": 4013,
      "بکن": 4014,
      "بکینه": 4015,
      "بسنده": 4016,
      "بجنبد": 4017,
      "دهند": 4018,
      "پاسبانان": 4019,
      "خواهران": 4020,
      "ماهیار": 4021,
      "پاکی": 4022,
      "بیدر": 4023,
      "کله": 4024,
      "جویم": 4025,
      "زدم": 4026,
      "ارژنگ": 4027,
      "چنگش": 4028,
      "ماندند": 4029,
      "بپرهیز": 4030,
      "برخیز": 4031,
      "استا": 4032,
      "بگفتم": 4033,
      "بتار": 4034,
      "چراست": 4035,
      "زبانها": 4036,
      "بینا": 4037,
      "ابری": 4038,
      "سزای": 4039,
      "مشکین": 4040,
      "درازست": 4041,
      "آراستی": 4042,
      "پلید": 4043,
      "ریخته": 4044,
      "ننگرد": 4045,
      "پرخون": 4046,
      "برکشیده": 4047,
      "زیبد": 4048,
      "آزادمرد": 4049,
      "نوشه": 4050,
      "کرگس": 4051,
      "شکیب": 4052,
      "ببندیم": 4053,
      "بخواهی": 4054,
      "بشوید": 4055,
      "یادگاری": 4056,
      "بمانم": 4057,
      "بریدند": 4058,
      "کنارنگ": 4059,
      "مانم": 4060,
      "بشکرد": 4061,
      "گذارد": 4062,
      "وخرد": 4063,
      "اورند": 4064,
      "سبزه": 4065,
      "بگسست": 4066,
      "بکوشم": 4067,
      "بکوشیم": 4068,
      "فغان": 4069,
      "بشاهی": 4070,
      "افگنم": 4071,
      "فیلقوس": 4072,
      "قیرگون": 4073,
      "ننمود": 4074,
      "نعمان": 4075,
      "البرز": 4076,
      "پرداخته": 4077,
      "زلشکر": 4078,
      "اشکش": 4079,
      "نترسد": 4080,
      "پتیاره": 4081,
      "چوپان": 4082,
      "حلقه": 4083,
      "فرومایه": 4084,
      "سکوبا": 4085,
      "ناسودمند": 4086,
      "گژدهم": 4087,
      "آژنگ": 4088,
      "بستی": 4089,
      "خنج": 4090,
      "خایه": 4091,
      "رسته": 4092,
      "رشن": 4093,
      "زاید": 4094,
      "زشتی": 4095,
      "طینوش": 4096,
      "طاق": 4097,
      "فخر": 4098,
      "مس": 4099,
      "مکار": 4100,
      "نومید": 4101,
      "کور": 4102,
      "##اپور": 4103,
      "##ورا": 4104,
      "##آنج": 4105,
      "##خرد": 4106,
      "##فه": 4107,
      "##جی": 4108,
      "##لیز": 4109,
      "##پی": 4110,
      "برام": 4111,
      "بریدن": 4112,
      "برفزود": 4113,
      "بدام": 4114,
      "بدها": 4115,
      "بدبخت": 4116,
      "نیای": 4117,
      "نیوش": 4118,
      "تافته": 4119,
      "##وزم": 4120,
      "گردم": 4121,
      "نهند": 4122,
      "نبشت": 4123,
      "بخر": 4124,
      "دستی": 4125,
      "مریم": 4126,
      "مات": 4127,
      "زرسپ": 4128,
      "ترسان": 4129,
      "شیری": 4130,
      "شماس": 4131,
      "زینه": 4132,
      "آریم": 4133,
      "دهلیز": 4134,
      "برگشتن": 4135,
      "خورست": 4136,
      "خوریم": 4137,
      "پیلسم": 4138,
      "بلاست": 4139,
      "گزیند": 4140,
      "کندآ": 4141,
      "نگویم": 4142,
      "باشدت": 4143,
      "نشستی": 4144,
      "تیغهای": 4145,
      "روشنی": 4146,
      "فرمانبر": 4147,
      "بدیدی": 4148,
      "گوهری": 4149,
      "کمرگاه": 4150,
      "بتندی": 4151,
      "مرزبانان": 4152,
      "سپهری": 4153,
      "داستانی": 4154,
      "خوانم": 4155,
      "ببخشای": 4156,
      "فروزان": 4157,
      "نیازد": 4158,
      "نیاورد": 4159,
      "پیچی": 4160,
      "پنجم": 4161,
      "تاریکی": 4162,
      "نمودن": 4163,
      "گاوسار": 4164,
      "کرانه": 4165,
      "برتو": 4166,
      "برزدند": 4167,
      "پرآشوب": 4168,
      "برانگیختند": 4169,
      "ناساز": 4170,
      "گروها": 4171,
      "بسازید": 4172,
      "تازیانه": 4173,
      "بگسلم": 4174,
      "نپیچی": 4175,
      "شتروار": 4176,
      "بدارید": 4177,
      "عرض": 4178,
      "برآمیخت": 4179,
      "دهانش": 4180,
      "زلف": 4181,
      "بشتافتی": 4182,
      "خستگیها": 4183,
      "نسازد": 4184,
      "غریو": 4185,
      "نوازنده": 4186,
      "نوبت": 4187,
      "برآساید": 4188,
      "آموختن": 4189,
      "بنالد": 4190,
      "اختران": 4191,
      "نریمان": 4192,
      "رشنواد": 4193,
      "ابی": 4194,
      "تگرگ": 4195,
      "جهرم": 4196,
      "ریمن": 4197,
      "زت": 4198,
      "زوی": 4199,
      "زرده": 4200,
      "زآن": 4201,
      "زفتی": 4202,
      "سا": 4203,
      "فدای": 4204,
      "مدان": 4205,
      "مندیش": 4206,
      "هستم": 4207,
      "وس": 4208,
      "پستی": 4209,
      "##کاره": 4210,
      "##کشی": 4211,
      "##نام": 4212,
      "##جست": 4213,
      "##لشکر": 4214,
      "برنده": 4215,
      "براز": 4216,
      "بریز": 4217,
      "##ایشست": 4218,
      "چوآمد": 4219,
      "##راگند": 4220,
      "##وره": 4221,
      "درید": 4222,
      "اندی": 4223,
      "شدندی": 4224,
      "فرامش": 4225,
      "نیاسود": 4226,
      "شاهست": 4227,
      "تابد": 4228,
      "بودیش": 4229,
      "پرتاب": 4230,
      "هرآنگه": 4231,
      "##شکی": 4232,
      "ببن": 4233,
      "کارداران": 4234,
      "روزبانان": 4235,
      "بخسرو": 4236,
      "شهره": 4237,
      "جنگیان": 4238,
      "##هاشان": 4239,
      "آبدار": 4240,
      "شاداب": 4241,
      "زمن": 4242,
      "بزی": 4243,
      "سیب": 4244,
      "تاجش": 4245,
      "برانم": 4246,
      "رنجش": 4247,
      "چندگاه": 4248,
      "مهری": 4249,
      "پایگه": 4250,
      "خاکست": 4251,
      "پدرت": 4252,
      "باشدم": 4253,
      "باشدش": 4254,
      "بدیها": 4255,
      "نهادی": 4256,
      "گرفتی": 4257,
      "روزگاران": 4258,
      "خواندم": 4259,
      "اسپش": 4260,
      "چشمم": 4261,
      "فرمانش": 4262,
      "تیزرو": 4263,
      "هول": 4264,
      "گوهرست": 4265,
      "بپرس": 4266,
      "دشمنست": 4267,
      "دوری": 4268,
      "##گفتار": 4269,
      "یارمند": 4270,
      "ساختش": 4271,
      "ببایدت": 4272,
      "گذشتی": 4273,
      "نراند": 4274,
      "خوانیم": 4275,
      "هوشیار": 4276,
      "بگردن": 4277,
      "مادرت": 4278,
      "هفتخوان": 4279,
      "نیرم": 4280,
      "آرزوها": 4281,
      "گشادست": 4282,
      "گیرم": 4283,
      "جادویی": 4284,
      "پردرد": 4285,
      "دیوانه": 4286,
      "دخترم": 4287,
      "##لتید": 4288,
      "برهمن": 4289,
      "پوینده": 4290,
      "درخشیدن": 4291,
      "نیابند": 4292,
      "هشتاد": 4293,
      "گروهی": 4294,
      "بشکن": 4295,
      "برافراخته": 4296,
      "بیگنه": 4297,
      "نزیبد": 4298,
      "ننهاد": 4299,
      "کایدر": 4300,
      "بپیروزی": 4301,
      "بربست": 4302,
      "مباش": 4303,
      "ایستاده": 4304,
      "کشمیر": 4305,
      "نسازم": 4306,
      "پتک": 4307,
      "کامگاری": 4308,
      "بسالار": 4309,
      "قلون": 4310,
      "برنیامد": 4311,
      "آسیاب": 4312,
      "آژده": 4313,
      "الی": 4314,
      "بستان": 4315,
      "بوید": 4316,
      "تلی": 4317,
      "جستم": 4318,
      "رانی": 4319,
      "رسو": 4320,
      "ساری": 4321,
      "سگز": 4322,
      "سغد": 4323,
      "صل": 4324,
      "صطخر": 4325,
      "طهم": 4326,
      "مق": 4327,
      "مز": 4328,
      "مبند": 4329,
      "نق": 4330,
      "چمان": 4331,
      "##داد": 4332,
      "##رگ": 4333,
      "##کین": 4334,
      "##نیست": 4335,
      "##بوی": 4336,
      "##ژی": 4337,
      "##آیین": 4338,
      "##خواست": 4339,
      "##قی": 4340,
      "##قون": 4341,
      "##غم": 4342,
      "برسر": 4343,
      "##ینود": 4344,
      "بدتن": 4345,
      "درگذشت": 4346,
      "اندام": 4347,
      "شدستی": 4348,
      "سپینود": 4349,
      "گرزداران": 4350,
      "اندرند": 4351,
      "منه": 4352,
      "منمای": 4353,
      "اورا": 4354,
      "خوبان": 4355,
      "پیشد": 4356,
      "بگستهم": 4357,
      "بدوخت": 4358,
      "جنگست": 4359,
      "بپیو": 4360,
      "بپاسخ": 4361,
      "بهری": 4362,
      "دارای": 4363,
      "مرنج": 4364,
      "شاددل": 4365,
      "خرسند": 4366,
      "افراز": 4367,
      "##بروی": 4368,
      "بارش": 4369,
      "بارگه": 4370,
      "گنجهای": 4371,
      "خونش": 4372,
      "نوک": 4373,
      "میانه": 4374,
      "##ارهای": 4375,
      "کشنده": 4376,
      "نگس": 4377,
      "نگشت": 4378,
      "سراپای": 4379,
      "##هیخت": 4380,
      "گفتارها": 4381,
      "گرفتم": 4382,
      "جوانست": 4383,
      "تنگدل": 4384,
      "نداشت": 4385,
      "نبودند": 4386,
      "ساختشان": 4387,
      "نکشت": 4388,
      "تاری": 4389,
      "براندیش": 4390,
      "آسایش": 4391,
      "ویژگان": 4392,
      "##اردان": 4393,
      "##نبک": 4394,
      "ببینند": 4395,
      "کهترم": 4396,
      "بچشم": 4397,
      "هرکو": 4398,
      "هنگامه": 4399,
      "بترسد": 4400,
      "چوبه": 4401,
      "گیرند": 4402,
      "دیری": 4403,
      "برگرفتش": 4404,
      "بادافره": 4405,
      "ناباک": 4406,
      "آزاری": 4407,
      "کاسته": 4408,
      "پرآزار": 4409,
      "گزیدند": 4410,
      "ماننده": 4411,
      "جمله": 4412,
      "مجویید": 4413,
      "انگاه": 4414,
      "ستمکاره": 4415,
      "چرمه": 4416,
      "بسازم": 4417,
      "نیلگون": 4418,
      "مشتری": 4419,
      "نجویی": 4420,
      "نجویند": 4421,
      "بندگانیم": 4422,
      "نگذرم": 4423,
      "پژوهش": 4424,
      "پژوهنده": 4425,
      "برکنم": 4426,
      "بودنیها": 4427,
      "رسانم": 4428,
      "نکوست": 4429,
      "افروختند": 4430,
      "اندیشگان": 4431,
      "سوکوار": 4432,
      "محمود": 4433,
      "ساسانیان": 4434,
      "پیغمبری": 4435,
      "برساختند": 4436,
      "ناچار": 4437,
      "سرنامه": 4438,
      "نستوه": 4439,
      "هیربد": 4440,
      "جنبان": 4441,
      "جدایی": 4442,
      "کمربسته": 4443,
      "آبشخور": 4444,
      "بیدرفش": 4445,
      "##آنجا": 4446,
      "زینهاری": 4447,
      "الیاس": 4448,
      "آشفت": 4449,
      "آویز": 4450,
      "اه": 4451,
      "بو": 4452,
      "بفت": 4453,
      "باند": 4454,
      "باندیشه": 4455,
      "تف": 4456,
      "تان": 4457,
      "جعد": 4458,
      "خنگ": 4459,
      "زخ": 4460,
      "سدیگر": 4461,
      "لنبک": 4462,
      "مستان": 4463,
      "مکان": 4464,
      "مخور": 4465,
      "وه": 4466,
      "وج": 4467,
      "واژ": 4468,
      "وگنج": 4469,
      "پان": 4470,
      "پستان": 4471,
      "چتر": 4472,
      "ژاله": 4473,
      "کری": 4474,
      "##رام": 4475,
      "##باه": 4476,
      "##بیل": 4477,
      "##وبد": 4478,
      "##گشته": 4479,
      "##سال": 4480,
      "##قاس": 4481,
      "##زری": 4482,
      "##فشان": 4483,
      "##غل": 4484,
      "##انم": 4485,
      "##ندم": 4486,
      "بریزد": 4487,
      "ازیر": 4488,
      "ازویست": 4489,
      "همم": 4490,
      "همن": 4491,
      "##اییم": 4492,
      "بدندان": 4493,
      "بافراسیاب": 4494,
      "چوگ": 4495,
      "چوشد": 4496,
      "##ورت": 4497,
      "##ورث": 4498,
      "بیایند": 4499,
      "درک": 4500,
      "گفتها": 4501,
      "پیامش": 4502,
      "فرور": 4503,
      "نیاری": 4504,
      "##مانی": 4505,
      "گرزم": 4506,
      "گرچه": 4507,
      "پران": 4508,
      "پرنگار": 4509,
      "آنی": 4510,
      "هریکی": 4511,
      "نامد": 4512,
      "کنش": 4513,
      "پیشی": 4514,
      "دادست": 4515,
      "##اساید": 4516,
      "دسته": 4517,
      "بنا": 4518,
      "بنیزه": 4519,
      "##ومیش": 4520,
      "همانست": 4521,
      "تنبل": 4522,
      "آبکش": 4523,
      "زمینش": 4524,
      "دیوی": 4525,
      "دیبه": 4526,
      "بزاری": 4527,
      "##اوس": 4528,
      "گنجش": 4529,
      "نیکخوی": 4530,
      "بردم": 4531,
      "گوای": 4532,
      "بسا": 4533,
      "بزرین": 4534,
      "دهستان": 4535,
      "##گیتی": 4536,
      "نوست": 4537,
      "ستد": 4538,
      "ستاند": 4539,
      "بلبل": 4540,
      "بشنوید": 4541,
      "کشتمند": 4542,
      "نگوی": 4543,
      "بایدم": 4544,
      "بدیگر": 4545,
      "زنم": 4546,
      "بندی": 4547,
      "بفرمودشان": 4548,
      "سوخته": 4549,
      "روشنست": 4550,
      "کشیدش": 4551,
      "تیزویر": 4552,
      "نهانش": 4553,
      "بپرسد": 4554,
      "زیرگاه": 4555,
      "نشانده": 4556,
      "بگذارد": 4557,
      "بتابد": 4558,
      "گرزی": 4559,
      "خوردی": 4560,
      "بمشت": 4561,
      "بگوییم": 4562,
      "نماندی": 4563,
      "چراگاه": 4564,
      "هرچند": 4565,
      "##لیس": 4566,
      "آرامش": 4567,
      "درفشش": 4568,
      "بستور": 4569,
      "فروخت": 4570,
      "آسیمه": 4571,
      "برزوی": 4572,
      "گشایم": 4573,
      "ببخشم": 4574,
      "زیج": 4575,
      "پادشاهیش": 4576,
      "برترمنش": 4577,
      "شکم": 4578,
      "نکردم": 4579,
      "دبیری": 4580,
      "آموی": 4581,
      "یابند": 4582,
      "جادوان": 4583,
      "شناسد": 4584,
      "بگیو": 4585,
      "بازگردی": 4586,
      "برتا": 4587,
      "کراست": 4588,
      "بگذاشتم": 4589,
      "بغداد": 4590,
      "رادمرد": 4591,
      "بیهده": 4592,
      "شوخ": 4593,
      "آویخته": 4594,
      "عنوان": 4595,
      "بشتاب": 4596,
      "بشتافت": 4597,
      "ببالین": 4598,
      "خنیده": 4599,
      "ترسا": 4600,
      "سرشکش": 4601,
      "خشنودی": 4602,
      "پرهیزگار": 4603,
      "همرنگ": 4604,
      "گاومیش": 4605,
      "برآریم": 4606,
      "پیراهنش": 4607,
      "اندکیست": 4608,
      "همتای": 4609,
      "هیرمند": 4610,
      "ابلیس": 4611,
      "اخترشناسان": 4612,
      "تیزتگ": 4613,
      "ماتم": 4614,
      "کندآوران": 4615,
      "زردهشت": 4616,
      "آسیابان": 4617,
      "سگزی": 4618,
      "صلیب": 4619,
      "##زریون": 4620,
      "آژ": 4621,
      "اشت": 4622,
      "ابل": 4623,
      "بفزود": 4624,
      "تشنه": 4625,
      "خاش": 4626,
      "دب": 4627,
      "دزد": 4628,
      "زگفتار": 4629,
      "سف": 4630,
      "سح": 4631,
      "سعد": 4632,
      "طای": 4633,
      "لبان": 4634,
      "مخ": 4635,
      "مع": 4636,
      "موم": 4637,
      "مبار": 4638,
      "وبد": 4639,
      "وبر": 4640,
      "وهم": 4641,
      "یلی": 4642,
      "##هشت": 4643,
      "##مر": 4644,
      "##رس": 4645,
      "##رث": 4646,
      "##ریز": 4647,
      "##اسر": 4648,
      "##نوش": 4649,
      "##بن": 4650,
      "##ومان": 4651,
      "##ذار": 4652,
      "##قار": 4653,
      "##ندش": 4654,
      "##ارا": 4655,
      "بهزاد": 4656,
      "بهومان": 4657,
      "##ودی": 4658,
      "##امن": 4659,
      "##ایید": 4660,
      "چوم": 4661,
      "چوبر": 4662,
      "##ونژاد": 4663,
      "بیکس": 4664,
      "بیایی": 4665,
      "دریده": 4666,
      "پیشتر": 4667,
      "یکباره": 4668,
      "سرست": 4669,
      "سرمایه": 4670,
      "##گرفت": 4671,
      "اندری": 4672,
      "پرسی": 4673,
      "##وزه": 4674,
      "منج": 4675,
      "منادی": 4676,
      "##شکن": 4677,
      "ببزم": 4678,
      "ببندی": 4679,
      "##ورده": 4680,
      "شهرگیر": 4681,
      "دسترس": 4682,
      "چونان": 4683,
      "بننگ": 4684,
      "راهب": 4685,
      "بهرجای": 4686,
      "برآهیخت": 4687,
      "##ومرث": 4688,
      "بادبان": 4689,
      "تنست": 4690,
      "باری": 4691,
      "بارکش": 4692,
      "بردارد": 4693,
      "خونی": 4694,
      "بکشتن": 4695,
      "بکوب": 4696,
      "بسختی": 4697,
      "رزمی": 4698,
      "بجنب": 4699,
      "بجوشد": 4700,
      "بجویم": 4701,
      "رفتم": 4702,
      "جزو": 4703,
      "زانک": 4704,
      "میاز": 4705,
      "کیومرث": 4706,
      "پایان": 4707,
      "پاکان": 4708,
      "پاکدل": 4709,
      "نگشتی": 4710,
      "##شیند": 4711,
      "بندد": 4712,
      "نهادیم": 4713,
      "نشستست": 4714,
      "تیغی": 4715,
      "انجام": 4716,
      "نبردی": 4717,
      "فرستادشان": 4718,
      "ماندی": 4719,
      "ایوانها": 4720,
      "بگویید": 4721,
      "نژندی": 4722,
      "قیص": 4723,
      "بینیم": 4724,
      "دمار": 4725,
      "بسترد": 4726,
      "بستدی": 4727,
      "لبها": 4728,
      "سپردار": 4729,
      "هنرهای": 4730,
      "مبادت": 4731,
      "نرفت": 4732,
      "آسود": 4733,
      "نیازش": 4734,
      "ببردش": 4735,
      "برادرت": 4736,
      "بگرید": 4737,
      "بگریختند": 4738,
      "##سپاه": 4739,
      "آهسته": 4740,
      "برخاستی": 4741,
      "ندانیم": 4742,
      "بویژه": 4743,
      "ببندید": 4744,
      "جوشنش": 4745,
      "جوشنست": 4746,
      "مردانگی": 4747,
      "زهره": 4748,
      "ترکی": 4749,
      "آهنست": 4750,
      "نگردم": 4751,
      "بخندد": 4752,
      "بنگر": 4753,
      "بدنام": 4754,
      "نگارنده": 4755,
      "بخوردن": 4756,
      "شایستگی": 4757,
      "چپش": 4758,
      "جنگجویان": 4759,
      "بشکند": 4760,
      "بشکنی": 4761,
      "بغلتید": 4762,
      "شکستن": 4763,
      "##اتوره": 4764,
      "ندادند": 4765,
      "ارزانیان": 4766,
      "##سندد": 4767,
      "##گشسب": 4768,
      "غلغل": 4769,
      "برکنار": 4770,
      "بسپرم": 4771,
      "آراستست": 4772,
      "پالیزبان": 4773,
      "الان": 4774,
      "عروس": 4775,
      "گاوان": 4776,
      "ناخوب": 4777,
      "برافروختند": 4778,
      "رسن": 4779,
      "برنگذ": 4780,
      "پرگناه": 4781,
      "پرگوهر": 4782,
      "آذرگشسب": 4783,
      "نوبهار": 4784,
      "بگریختی": 4785,
      "بتابید": 4786,
      "تشنگی": 4787,
      "نباشند": 4788,
      "آشنایی": 4789,
      "بدخویی": 4790,
      "ببیژن": 4791,
      "آلوده": 4792,
      "علف": 4793,
      "هردو": 4794,
      "شماساس": 4795,
      "طهمورث": 4796,
      "مقاتوره": 4797,
      "دیریاز": 4798,
      "پانصد": 4799,
      "آژیر": 4800,
      "مبارز": 4801,
      "آخت": 4802,
      "اک": 4803,
      "ارم": 4804,
      "بتیغ": 4805,
      "تک": 4806,
      "تود": 4807,
      "توده": 4808,
      "ثری": 4809,
      "خراب": 4810,
      "زنگی": 4811,
      "ششم": 4812,
      "صورت": 4813,
      "عه": 4814,
      "غران": 4815,
      "لاف": 4816,
      "لابه": 4817,
      "مین": 4818,
      "مشم": 4819,
      "مدا": 4820,
      "ملخ": 4821,
      "موزه": 4822,
      "وگ": 4823,
      "وچ": 4824,
      "پد": 4825,
      "پاله": 4826,
      "یی": 4827,
      "##یبا": 4828,
      "##رای": 4829,
      "##اع": 4830,
      "##اشان": 4831,
      "##کوه": 4832,
      "##نید": 4833,
      "##نبر": 4834,
      "##بوم": 4835,
      "##بوه": 4836,
      "##آفرین": 4837,
      "##خچیر": 4838,
      "##خواره": 4839,
      "##زی": 4840,
      "##فهان": 4841,
      "##طقون": 4842,
      "##ستگان": 4843,
      "برپ": 4844,
      "##ایران": 4845,
      "بااو": 4846,
      "##ورید": 4847,
      "بیفزاید": 4848,
      "بیطقون": 4849,
      "##نگون": 4850,
      "پیمود": 4851,
      "اندیان": 4852,
      "یکدل": 4853,
      "##هریار": 4854,
      "کردست": 4855,
      "کردیم": 4856,
      "پروران": 4857,
      "نامت": 4858,
      "جهانبان": 4859,
      "نهیم": 4860,
      "بباغ": 4861,
      "ببالید": 4862,
      "بگل": 4863,
      "بگنج": 4864,
      "کارت": 4865,
      "کارشان": 4866,
      "بخفتند": 4867,
      "بخیمه": 4868,
      "دیدن": 4869,
      "بپراگند": 4870,
      "راهام": 4871,
      "راهبر": 4872,
      "##گهی": 4873,
      "##زموده": 4874,
      "وزآنجا": 4875,
      "مراو": 4876,
      "بازش": 4877,
      "بازماند": 4878,
      "بزن": 4879,
      "بارور": 4880,
      "دانم": 4881,
      "گنجست": 4882,
      "برانوش": 4883,
      "نشاخت": 4884,
      "بردست": 4885,
      "##منست": 4886,
      "شماست": 4887,
      "آرش": 4888,
      "بجستم": 4889,
      "بجویی": 4890,
      "##اختم": 4891,
      "آوردش": 4892,
      "خواستست": 4893,
      "میانجی": 4894,
      "گزاف": 4895,
      "گزاینده": 4896,
      "کندی": 4897,
      "پاکد": 4898,
      "نگذر": 4899,
      "کلبه": 4900,
      "کلات": 4901,
      "ناگه": 4902,
      "خواندندی": 4903,
      "پرستیدن": 4904,
      "برنش": 4905,
      "داشتش": 4906,
      "داشتندی": 4907,
      "##ندیشد": 4908,
      "بالاش": 4909,
      "برخر": 4910,
      "نبودست": 4911,
      "بماه": 4912,
      "خوارزم": 4913,
      "بگویند": 4914,
      "ببایدش": 4915,
      "روباه": 4916,
      "ابرو": 4917,
      "بستگان": 4918,
      "##نهفت": 4919,
      "نژادش": 4920,
      "رودبار": 4921,
      "بیژنا": 4922,
      "کمانی": 4923,
      "برزست": 4924,
      "ببردی": 4925,
      "پلاشان": 4926,
      "راندی": 4927,
      "بانبوه": 4928,
      "نخواهند": 4929,
      "داناتری": 4930,
      "بیدادی": 4931,
      "هرکه": 4932,
      "مرغان": 4933,
      "افگندنی": 4934,
      "ورای": 4935,
      "گناهی": 4936,
      "شمارش": 4937,
      "خسرونژاد": 4938,
      "طلسم": 4939,
      "سلیحش": 4940,
      "نمودی": 4941,
      "بشوی": 4942,
      "جاث": 4943,
      "دودمان": 4944,
      "نابخرد": 4945,
      "پوشد": 4946,
      "بازگردان": 4947,
      "برهام": 4948,
      "سرتاسر": 4949,
      "بخوانی": 4950,
      "نیابم": 4951,
      "همینست": 4952,
      "خستو": 4953,
      "آغوش": 4954,
      "برافراختند": 4955,
      "بکوشی": 4956,
      "غرنده": 4957,
      "نجوییم": 4958,
      "##گسل": 4959,
      "نگذاشتی": 4960,
      "بازارگانان": 4961,
      "یازان": 4962,
      "یازید": 4963,
      "بامن": 4964,
      "نارسیده": 4965,
      "وتاج": 4966,
      "پراگندن": 4967,
      "بگیرم": 4968,
      "عرب": 4969,
      "پرداختن": 4970,
      "نگیرند": 4971,
      "فریادخواه": 4972,
      "رساند": 4973,
      "مگذر": 4974,
      "مگشای": 4975,
      "ایستاد": 4976,
      "برنهید": 4977,
      "برنهاده": 4978,
      "هزیمت": 4979,
      "نفس": 4980,
      "سالخورده": 4981,
      "کاردانان": 4982,
      "نباشیم": 4983,
      "اصفهان": 4984,
      "طبع": 4985,
      "بازآمدند": 4986,
      "تمام": 4987,
      "بشبگیر": 4988,
      "بخراد": 4989,
      "ناسازگار": 4990,
      "اهواز": 4991,
      "بفتراک": 4992,
      "خاشاک": 4993,
      "طایر": 4994,
      "منادیگری": 4995,
      "عهدی": 4996,
      "مداین": 4997,
      "پدرم": 4998,
      "پالهنگ": 4999,
      "آشو": 5000,
      "بفشارد": 5001,
      "جواز": 5002,
      "حج": 5003,
      "حاج": 5004,
      "حقه": 5005,
      "خال": 5006,
      "درا": 5007,
      "رم": 5008,
      "زجای": 5009,
      "سفت": 5010,
      "شع": 5011,
      "لاج": 5012,
      "مش": 5013,
      "نرد": 5014,
      "نهر": 5015,
      "نصر": 5016,
      "هنگ": 5017,
      "وهر": 5018,
      "وفر": 5019,
      "وآن": 5020,
      "چکان": 5021,
      "کال": 5022,
      "گوران": 5023,
      "##یی": 5024,
      "##یق": 5025,
      "##هنگ": 5026,
      "##هبد": 5027,
      "##نواز": 5028,
      "##واب": 5029,
      "##آورد": 5030,
      "##ترا": 5031,
      "##تیش": 5032,
      "##سیمه": 5033,
      "##جاده": 5034,
      "برق": 5035,
      "برفراز": 5036,
      "بدارد": 5037,
      "باسپ": 5038,
      "رابد": 5039,
      "چوگرد": 5040,
      "##ورم": 5041,
      "بیجاده": 5042,
      "شدیم": 5043,
      "سرنگون": 5044,
      "نیایم": 5045,
      "شاهین": 5046,
      "پرگار": 5047,
      "پرامید": 5048,
      "##نجد": 5049,
      "هریک": 5050,
      "جهاند": 5051,
      "##یمی": 5052,
      "کنابد": 5053,
      "ببسته": 5054,
      "بگش": 5055,
      "بگوهر": 5056,
      "کارد": 5057,
      "کارست": 5058,
      "روزش": 5059,
      "بخسپ": 5060,
      "بخاقان": 5061,
      "بخشکی": 5062,
      "##خنه": 5063,
      "لشکرت": 5064,
      "جنگش": 5065,
      "بناز": 5066,
      "بنخچیر": 5067,
      "برآب": 5068,
      "برآشو": 5069,
      "گیسو": 5070,
      "گیلان": 5071,
      "تنه": 5072,
      "زمرد": 5073,
      "بزودی": 5074,
      "رایگان": 5075,
      "برانگ": 5076,
      "نیکان": 5077,
      "بردع": 5078,
      "رنجور": 5079,
      "خونریز": 5080,
      "بکی": 5081,
      "بکف": 5082,
      "بکفت": 5083,
      "بکاف": 5084,
      "آرید": 5085,
      "بجا": 5086,
      "خواهند": 5087,
      "بلاش": 5088,
      "ماهیان": 5089,
      "دگرگون": 5090,
      "زانو": 5091,
      "جانت": 5092,
      "جانست": 5093,
      "کیهان": 5094,
      "کیفر": 5095,
      "گزی": 5096,
      "کشیم": 5097,
      "خاکش": 5098,
      "بیاریم": 5099,
      "مهترست": 5100,
      "##رانی": 5101,
      "بشنیده": 5102,
      "وراست": 5103,
      "برنهد": 5104,
      "برنشیند": 5105,
      "اروند": 5106,
      "خدنگی": 5107,
      "زرینش": 5108,
      "یارانش": 5109,
      "##نیها": 5110,
      "شنیدستم": 5111,
      "مرزها": 5112,
      "ایوانش": 5113,
      "چربی": 5114,
      "فزاید": 5115,
      "##افگن": 5116,
      "سازند": 5117,
      "گوشش": 5118,
      "بندها": 5119,
      "براندازه": 5120,
      "سوده": 5121,
      "سخته": 5122,
      "ریختی": 5123,
      "تاختی": 5124,
      "راندم": 5125,
      "پنداشتند": 5126,
      "##خواهی": 5127,
      "تابش": 5128,
      "بدادار": 5129,
      "مادرست": 5130,
      "بچین": 5131,
      "برترین": 5132,
      "کرمان": 5133,
      "شکیبا": 5134,
      "زورق": 5135,
      "نمرد": 5136,
      "هرکش": 5137,
      "دخترست": 5138,
      "زهرش": 5139,
      "نجستم": 5140,
      "نپسندد": 5141,
      "مدارا": 5142,
      "خلخ": 5143,
      "شاخی": 5144,
      "بشویم": 5145,
      "بنگری": 5146,
      "##یلان": 5147,
      "کیخسروست": 5148,
      "چاکر": 5149,
      "سرفرازی": 5150,
      "شناسنده": 5151,
      "نشنیده": 5152,
      "ویرانی": 5153,
      "آهرمنان": 5154,
      "پناهید": 5155,
      "صفی": 5156,
      "سوری": 5157,
      "نمانیم": 5158,
      "سپرهای": 5159,
      "ستمگار": 5160,
      "سودمندی": 5161,
      "سرما": 5162,
      "کدامند": 5163,
      "آویختند": 5164,
      "نویسد": 5165,
      "هژیر": 5166,
      "ندادش": 5167,
      "نپیچم": 5168,
      "##گزند": 5169,
      "ببخشیم": 5170,
      "ببالای": 5171,
      "خزان": 5172,
      "نزاید": 5173,
      "پزشکان": 5174,
      "عقیق": 5175,
      "کفشگر": 5176,
      "بدلش": 5177,
      "بنشین": 5178,
      "گرگساران": 5179,
      "نارون": 5180,
      "نادیده": 5181,
      "بگزین": 5182,
      "بباشید": 5183,
      "##شگری": 5184,
      "گستردنیها": 5185,
      "نکوهیده": 5186,
      "برایشان": 5187,
      "بیستون": 5188,
      "نگیرم": 5189,
      "انداختن": 5190,
      "##کندری": 5191,
      "دشنه": 5192,
      "سرنام": 5193,
      "غلامان": 5194,
      "رهانید": 5195,
      "کبست": 5196,
      "نفرمود": 5197,
      "اصطخر": 5198,
      "طبق": 5199,
      "نتابی": 5200,
      "برگردد": 5201,
      "شیپور": 5202,
      "نالیدن": 5203,
      "تندرست": 5204,
      "بتاراج": 5205,
      "خنجری": 5206,
      "بریزند": 5207,
      "بپیوست": 5208,
      "ازیرا": 5209,
      "همنشان": 5210,
      "بیکسو": 5211,
      "برنگذرد": 5212,
      "اکوان": 5213,
      "جاثلی": 5214,
      "نهروان": 5215,
      "آد": 5216,
      "آواره": 5217,
      "آوا": 5218,
      "جند": 5219,
      "جسته": 5220,
      "دده": 5221,
      "ددان": 5222,
      "رخنه": 5223,
      "زنگار": 5224,
      "زگیتی": 5225,
      "ساید": 5226,
      "سوم": 5227,
      "ساده": 5228,
      "سنب": 5229,
      "غن": 5230,
      "غات": 5231,
      "قد": 5232,
      "قط": 5233,
      "مال": 5234,
      "متر": 5235,
      "مسم": 5236,
      "وان": 5237,
      "ودان": 5238,
      "ودل": 5239,
      "چغ": 5240,
      "چیند": 5241,
      "چمید": 5242,
      "کشک": 5243,
      "گندم": 5244,
      "##دبیر": 5245,
      "##هور": 5246,
      "##کز": 5247,
      "##کید": 5248,
      "##کنده": 5249,
      "##کشته": 5250,
      "##باز": 5251,
      "##بوس": 5252,
      "##خود": 5253,
      "##فسون": 5254,
      "##جمن": 5255,
      "##لاه": 5256,
      "##طوم": 5257,
      "##پیچ": 5258,
      "##پیشه": 5259,
      "##غار": 5260,
      "##ضر": 5261,
      "##ارس": 5262,
      "برمن": 5263,
      "برهم": 5264,
      "ازب": 5265,
      "ازبر": 5266,
      "##امک": 5267,
      "##ایگان": 5268,
      "بدژ": 5269,
      "بدیم": 5270,
      "بدیده": 5271,
      "بدارم": 5272,
      "بافرین": 5273,
      "چوخ": 5274,
      "بیالود": 5275,
      "درنهان": 5276,
      "سرها": 5277,
      "سروران": 5278,
      "فروشد": 5279,
      "گرنه": 5280,
      "بودیم": 5281,
      "اندروی": 5282,
      "اندرخور": 5283,
      "پرید": 5284,
      "آنست": 5285,
      "خوبروی": 5286,
      "##استی": 5287,
      "بگنگ": 5288,
      "##فرید": 5289,
      "دادشان": 5290,
      "دادمش": 5291,
      "سپاهت": 5292,
      "بخاست": 5293,
      "بخارا": 5294,
      "##واری": 5295,
      "دیدیم": 5296,
      "کوفت": 5297,
      "بپرده": 5298,
      "برآری": 5299,
      "گیتیش": 5300,
      "آبست": 5301,
      "زمی": 5302,
      "زمزم": 5303,
      "خرامد": 5304,
      "بازجست": 5305,
      "بزاد": 5306,
      "بزنه": 5307,
      "سیامک": 5308,
      "شیرفش": 5309,
      "پیرزن": 5310,
      "زمانش": 5311,
      "چندست": 5312,
      "خوناب": 5313,
      "بکژی": 5314,
      "اگرچه": 5315,
      "بسو": 5316,
      "##وساز": 5317,
      "برگس": 5318,
      "برگشای": 5319,
      "##اختر": 5320,
      "خوری": 5321,
      "بفری": 5322,
      "نوشتن": 5323,
      "نوآیین": 5324,
      "خواهیم": 5325,
      "سترد": 5326,
      "ستودان": 5327,
      "ستاینده": 5328,
      "ماهروی": 5329,
      "مهرنوش": 5330,
      "رستمست": 5331,
      "کشند": 5332,
      "پدرام": 5333,
      "سراسیمه": 5334,
      "زنار": 5335,
      "نهادن": 5336,
      "جوییم": 5337,
      "سوراخ": 5338,
      "چینیان": 5339,
      "انجا": 5340,
      "اسپهبد": 5341,
      "کشیدم": 5342,
      "بلندش": 5343,
      "خورشیدفش": 5344,
      "کامه": 5345,
      "چیزست": 5346,
      "برنامه": 5347,
      "ارمان": 5348,
      "گلیم": 5349,
      "گلشهر": 5350,
      "کشورت": 5351,
      "کمرهای": 5352,
      "بگفتی": 5353,
      "کاوه": 5354,
      "زیرش": 5355,
      "##نیق": 5356,
      "شنیدن": 5357,
      "ندارید": 5358,
      "بیاگند": 5359,
      "کارزاری": 5360,
      "سپهرم": 5361,
      "دمه": 5362,
      "دمنده": 5363,
      "نژادی": 5364,
      "ببستش": 5365,
      "نهفتن": 5366,
      "برزنی": 5367,
      "اردبیل": 5368,
      "ناپسند": 5369,
      "ناپایدار": 5370,
      "فزونتر": 5371,
      "پندمند": 5372,
      "بخشایشست": 5373,
      "زردشت": 5374,
      "درختان": 5375,
      "کمندش": 5376,
      "بگردیم": 5377,
      "کاینت": 5378,
      "کهتریم": 5379,
      "بدرود": 5380,
      "نمک": 5381,
      "اسبش": 5382,
      "ببندند": 5383,
      "بیابم": 5384,
      "بیابند": 5385,
      "برافشاند": 5386,
      "اژدهافش": 5387,
      "پسندد": 5388,
      "پیچید": 5389,
      "نجستند": 5390,
      "رامشگر": 5391,
      "چوبهرام": 5392,
      "نپر": 5393,
      "یابید": 5394,
      "یابیم": 5395,
      "بهشتست": 5396,
      "گشادی": 5397,
      "گیرنده": 5398,
      "خلیده": 5399,
      "بشویی": 5400,
      "بازارگاه": 5401,
      "خمیده": 5402,
      "##فزون": 5403,
      "سرخه": 5404,
      "برانگیزد": 5405,
      "براهی": 5406,
      "آهرمنا": 5407,
      "شکاری": 5408,
      "##گنید": 5409,
      "نازش": 5410,
      "جمهور": 5411,
      "انگیخت": 5412,
      "زیردستی": 5413,
      "برما": 5414,
      "برمیان": 5415,
      "بگذرند": 5416,
      "زندگی": 5417,
      "فرهنگیان": 5418,
      "غرق": 5419,
      "پیوستگی": 5420,
      "کارآزموده": 5421,
      "نپیچید": 5422,
      "پرورید": 5423,
      "رابخواند": 5424,
      "تواناتری": 5425,
      "گزارنده": 5426,
      "بگیرند": 5427,
      "قیدروش": 5428,
      "فتاد": 5429,
      "مپوی": 5430,
      "نگیری": 5431,
      "اشکبوس": 5432,
      "کاهلی": 5433,
      "انداختی": 5434,
      "ببازو": 5435,
      "سگالش": 5436,
      "عمودی": 5437,
      "هیتالیان": 5438,
      "ناسزاوار": 5439,
      "غریوان": 5440,
      "نخوانند": 5441,
      "فروهشت": 5442,
      "خیرگی": 5443,
      "جرس": 5444,
      "اخترشناس": 5445,
      "آذین": 5446,
      "چاچی": 5447,
      "بادپایان": 5448,
      "بیزارم": 5449,
      "رباب": 5450,
      "##لاح": 5451,
      "برشکست": 5452,
      "شکیبایی": 5453,
      "بپرسش": 5454,
      "پیشدستی": 5455,
      "فروریخت": 5456,
      "بشتافتم": 5457,
      "دبیران": 5458,
      "سفله": 5459,
      "اندریمان": 5460,
      "منجنیق": 5461,
      "قیصران": 5462,
      "ثریا": 5463,
      "مینو": 5464,
      "حجره": 5465,
      "جهانداور": 5466,
      "ستمگاره": 5467,
      "سنبل": 5468,
      "غاتفر": 5469,
      "چغانی": 5470,
      "بزنهار": 5471,
      "آگین": 5472,
      "اون": 5473,
      "تیزد": 5474,
      "تدبیر": 5475,
      "جور": 5476,
      "جلب": 5477,
      "حک": 5478,
      "خند": 5479,
      "دنان": 5480,
      "رق": 5481,
      "زآ": 5482,
      "زیران": 5483,
      "زخون": 5484,
      "شص": 5485,
      "شرز": 5486,
      "شیب": 5487,
      "شوشه": 5488,
      "شگنی": 5489,
      "غمان": 5490,
      "غرو": 5491,
      "فدی": 5492,
      "قص": 5493,
      "قراخ": 5494,
      "لاغ": 5495,
      "ماک": 5496,
      "مکش": 5497,
      "ملاح": 5498,
      "نوز": 5499,
      "نورد": 5500,
      "وش": 5501,
      "وگفت": 5502,
      "ونه": 5503,
      "چلی": 5504,
      "کآ": 5505,
      "##یه": 5506,
      "##هتر": 5507,
      "##موز": 5508,
      "##رنگ": 5509,
      "##کران": 5510,
      "##کرده": 5511,
      "##نست": 5512,
      "##نژاد": 5513,
      "##وال": 5514,
      "##گل": 5515,
      "##گوار": 5516,
      "##آگاه": 5517,
      "##فید": 5518,
      "##پا": 5519,
      "برکس": 5520,
      "بربند": 5521,
      "برجای": 5522,
      "برفروزد": 5523,
      "ازکار": 5524,
      "ازآن": 5525,
      "##امیش": 5526,
      "بدکام": 5527,
      "بدخوی": 5528,
      "باسب": 5529,
      "رازدار": 5530,
      "چواز": 5531,
      "چوآن": 5532,
      "چواین": 5533,
      "بیت": 5534,
      "بیغ": 5535,
      "بیختند": 5536,
      "##نگان": 5537,
      "درستی": 5538,
      "گفتنش": 5539,
      "گفتارهای": 5540,
      "پیمبر": 5541,
      "یکسان": 5542,
      "سربر": 5543,
      "فرت": 5544,
      "فرماید": 5545,
      "نیندیشد": 5546,
      "شاهشان": 5547,
      "شاهیش": 5548,
      "تافتی": 5549,
      "##وشان": 5550,
      "کردشان": 5551,
      "کردنش": 5552,
      "پرنده": 5553,
      "پرسم": 5554,
      "پرکین": 5555,
      "هرسو": 5556,
      "کاردار": 5557,
      "مردن": 5558,
      "مردست": 5559,
      "##وارش": 5560,
      "دستم": 5561,
      "دستار": 5562,
      "لشکرم": 5563,
      "کوفتند": 5564,
      "جنگاور": 5565,
      "بنیک": 5566,
      "بنازد": 5567,
      "بپیک": 5568,
      "برآه": 5569,
      "برآشفته": 5570,
      "برآیین": 5571,
      "مرجان": 5572,
      "ماچین": 5573,
      "خروار": 5574,
      "خرطوم": 5575,
      "دیوز": 5576,
      "دیوساز": 5577,
      "بزار": 5578,
      "بزور": 5579,
      "اسکندری": 5580,
      "شهریارا": 5581,
      "شهریارست": 5582,
      "##برگ": 5583,
      "تاجست": 5584,
      "نیکدل": 5585,
      "مهترا": 5586,
      "ترم": 5587,
      "شیرست": 5588,
      "بسیاردان": 5589,
      "بسند": 5590,
      "بسازد": 5591,
      "بسپر": 5592,
      "بسوزم": 5593,
      "نزدیکتر": 5594,
      "نخورد": 5595,
      "نخواست": 5596,
      "خورم": 5597,
      "خورید": 5598,
      "میاسای": 5599,
      "گزافه": 5600,
      "گویید": 5601,
      "رخانش": 5602,
      "پاینده": 5603,
      "کشی": 5604,
      "نگفتی": 5605,
      "دشتی": 5606,
      "سراید": 5607,
      "خروشش": 5608,
      "زنند": 5609,
      "گفتارش": 5610,
      "گفتارشان": 5611,
      "شناخت": 5612,
      "شناسی": 5613,
      "نهادم": 5614,
      "روزگارش": 5615,
      "ناشاد": 5616,
      "ناجوان": 5617,
      "سوگنده": 5618,
      "موسی": 5619,
      "روشنک": 5620,
      "چشمها": 5621,
      "بختی": 5622,
      "##بادگان": 5623,
      "جوانوی": 5624,
      "سهم": 5625,
      "تیرش": 5626,
      "آزرد": 5627,
      "بیاراستم": 5628,
      "گوهرش": 5629,
      "کشورم": 5630,
      "دشمنش": 5631,
      "بگفتا": 5632,
      "نبایدت": 5633,
      "یارست": 5634,
      "بگذار": 5635,
      "بتاخت": 5636,
      "بتنگی": 5637,
      "بمال": 5638,
      "بمیرد": 5639,
      "سرشبان": 5640,
      "بیافت": 5641,
      "سپهرش": 5642,
      "آنکسی": 5643,
      "فزای": 5644,
      "زبانی": 5645,
      "دلیرست": 5646,
      "تورانیان": 5647,
      "سازید": 5648,
      "گذشتند": 5649,
      "بیننده": 5650,
      "شاگرد": 5651,
      "نکاهد": 5652,
      "بستود": 5653,
      "اخترش": 5654,
      "اخترت": 5655,
      "نژادست": 5656,
      "مشکنید": 5657,
      "برفتیم": 5658,
      "آراستم": 5659,
      "مبادی": 5660,
      "برزند": 5661,
      "نیازارد": 5662,
      "ناپارس": 5663,
      "بگریزد": 5664,
      "گشاینده": 5665,
      "مرگش": 5666,
      "آهستگی": 5667,
      "ارجاسب": 5668,
      "برشهریار": 5669,
      "گهش": 5670,
      "بدرویش": 5671,
      "بچیز": 5672,
      "گوری": 5673,
      "نخچیرگه": 5674,
      "بخواهش": 5675,
      "بخواهیم": 5676,
      "دخترت": 5677,
      "درستست": 5678,
      "ایزدست": 5679,
      "پسندید": 5680,
      "بترکان": 5681,
      "شتابید": 5682,
      "آوریدی": 5683,
      "آرزوست": 5684,
      "برگزیند": 5685,
      "نپذرفت": 5686,
      "سزاوارتر": 5687,
      "سلیحست": 5688,
      "جگرگاه": 5689,
      "زادشم": 5690,
      "خوشگوار": 5691,
      "دیرساز": 5692,
      "نمودم": 5693,
      "نمودند": 5694,
      "دیوانگی": 5695,
      "##برزین": 5696,
      "پیغاره": 5697,
      "پرآژنگ": 5698,
      "نازی": 5699,
      "بخوانم": 5700,
      "نیابیم": 5701,
      "انگبین": 5702,
      "نمایش": 5703,
      "چاهسار": 5704,
      "پیکانش": 5705,
      "گذاشت": 5706,
      "آغشته": 5707,
      "رادی": 5708,
      "فرستمت": 5709,
      "کدامین": 5710,
      "فگندی": 5711,
      "پهنا": 5712,
      "بهتری": 5713,
      "بهترست": 5714,
      "سرآرد": 5715,
      "بازیاب": 5716,
      "ببخشش": 5717,
      "حصن": 5718,
      "مزدور": 5719,
      "وبوم": 5720,
      "ژرفی": 5721,
      "یازی": 5722,
      "بوسه": 5723,
      "بباشم": 5724,
      "ستودن": 5725,
      "گسست": 5726,
      "فتاده": 5727,
      "##واسته": 5728,
      "شمعی": 5729,
      "وارونه": 5730,
      "سرافشان": 5731,
      "رسانید": 5732,
      "بپوشی": 5733,
      "مگو": 5734,
      "بجویید": 5735,
      "سگالد": 5736,
      "سگالیده": 5737,
      "بگردانم": 5738,
      "نگفتم": 5739,
      "ناچیز": 5740,
      "خواهرش": 5741,
      "بنیرو": 5742,
      "شوربختی": 5743,
      "مادیان": 5744,
      "برکشیم": 5745,
      "سگالید": 5746,
      "خزروان": 5747,
      "هزمان": 5748,
      "نفط": 5749,
      "تشویر": 5750,
      "میخواره": 5751,
      "مگیرید": 5752,
      "قفیز": 5753,
      "خوالیگران": 5754,
      "فرمانبران": 5755,
      "اندیشد": 5756,
      "باندازه": 5757,
      "مخار": 5758,
      "مگذرید": 5759,
      "قطره": 5760,
      "زیراندر": 5761,
      "شصت": 5762,
      "شرزه": 5763,
      "قراخان": 5764,
      "چلیپا": 5765,
      "ناجوانمرد": 5766,
      "افت": 5767,
      "الک": 5768,
      "بشکر": 5769,
      "بامی": 5770,
      "حی": 5771,
      "خوز": 5772,
      "دیزه": 5773,
      "دنبر": 5774,
      "رگ": 5775,
      "رسی": 5776,
      "روید": 5777,
      "رشته": 5778,
      "زشاه": 5779,
      "شام": 5780,
      "شیز": 5781,
      "شبد": 5782,
      "طال": 5783,
      "فسی": 5784,
      "فشان": 5785,
      "فوج": 5786,
      "قض": 5787,
      "هوم": 5788,
      "وراز": 5789,
      "وجان": 5790,
      "وسپاه": 5791,
      "چران": 5792,
      "کنج": 5793,
      "گان": 5794,
      "##دایی": 5795,
      "##ییم": 5796,
      "##رق": 5797,
      "##اپ": 5798,
      "##اوی": 5799,
      "##کیست": 5800,
      "##نامی": 5801,
      "##بست": 5802,
      "##بیم": 5803,
      "##باید": 5804,
      "##وین": 5805,
      "##گویی": 5806,
      "##آب": 5807,
      "##آور": 5808,
      "##خسر": 5809,
      "##سام": 5810,
      "##سمان": 5811,
      "##زید": 5812,
      "##چند": 5813,
      "##پس": 5814,
      "##پایی": 5815,
      "##صده": 5816,
      "##غز": 5817,
      "بروشن": 5818,
      "برتن": 5819,
      "بهست": 5820,
      "##اداش": 5821,
      "ازن": 5822,
      "ازمن": 5823,
      "همس": 5824,
      "##ایشان": 5825,
      "بدوز": 5826,
      "چوخواهی": 5827,
      "##راید": 5828,
      "بیف": 5829,
      "بیفزود": 5830,
      "درن": 5831,
      "دربد": 5832,
      "دربان": 5833,
      "یکبار": 5834,
      "سرگین": 5835,
      "سرکشی": 5836,
      "سرگشته": 5837,
      "فریان": 5838,
      "فرمند": 5839,
      "سپد": 5840,
      "گرامیش": 5841,
      "بودمی": 5842,
      "اندریم": 5843,
      "##وشم": 5844,
      "##وشیار": 5845,
      "توبه": 5846,
      "پرچین": 5847,
      "پرهرا": 5848,
      "دلگسل": 5849,
      "آنم": 5850,
      "منقار": 5851,
      "هروم": 5852,
      "نامشان": 5853,
      "##یمای": 5854,
      "نهالی": 5855,
      "ببوس": 5856,
      "بگم": 5857,
      "بگزار": 5858,
      "نبی": 5859,
      "##فرمان": 5860,
      "کارستان": 5861,
      "دادیم": 5862,
      "##الا": 5863,
      "##اکام": 5864,
      "دوخت": 5865,
      "بخشد": 5866,
      "گشتست": 5867,
      "لشکرشکن": 5868,
      "بنیز": 5869,
      "رویم": 5870,
      "##شمار": 5871,
      "بپا": 5872,
      "بپویم": 5873,
      "بادت": 5874,
      "بادپایی": 5875,
      "تنان": 5876,
      "آبت": 5877,
      "آبها": 5878,
      "زمینی": 5879,
      "خرداد": 5880,
      "##بری": 5881,
      "دانه": 5882,
      "دانید": 5883,
      "دانیم": 5884,
      "نشستم": 5885,
      "نشایست": 5886,
      "##دیده": 5887,
      "##منی": 5888,
      "ترنج": 5889,
      "رنجست": 5890,
      "رنجهای": 5891,
      "گوایی": 5892,
      "##اشتم": 5893,
      "بکاست": 5894,
      "بکاهد": 5895,
      "آفرینی": 5896,
      "آفرینش": 5897,
      "بسد": 5898,
      "بسوز": 5899,
      "دهاده": 5900,
      "نخفت": 5901,
      "برگذ": 5902,
      "برگراید": 5903,
      "نامدارن": 5904,
      "خورند": 5905,
      "چنانم": 5906,
      "آوردنی": 5907,
      "یادکرد": 5908,
      "پیلست": 5909,
      "رفتنی": 5910,
      "خواهید": 5911,
      "خواهشگری": 5912,
      "ستوران": 5913,
      "مهرگان": 5914,
      "جانور": 5915,
      "کیخسر": 5916,
      "گوییم": 5917,
      "بشنویم": 5918,
      "برینست": 5919,
      "کندرو": 5920,
      "پایاب": 5921,
      "خاکسار": 5922,
      "نگش": 5923,
      "نگنجد": 5924,
      "پدرش": 5925,
      "بدیست": 5926,
      "بدیبا": 5927,
      "نهادش": 5928,
      "گرفتست": 5929,
      "گرفتیم": 5930,
      "کلک": 5931,
      "نازد": 5932,
      "ناخن": 5933,
      "جویید": 5934,
      "سوختن": 5935,
      "تیغش": 5936,
      "آوریده": 5937,
      "چشمت": 5938,
      "کشیدیم": 5939,
      "پشتش": 5940,
      "برنت": 5941,
      "برنهی": 5942,
      "برنخواند": 5943,
      "نبردم": 5944,
      "تیزگرد": 5945,
      "ازوست": 5946,
      "گلان": 5947,
      "گلینوش": 5948,
      "گلزریون": 5949,
      "خوابگاه": 5950,
      "ماندم": 5951,
      "افراخته": 5952,
      "افراختند": 5953,
      "دشمنند": 5954,
      "برخش": 5955,
      "نامدارانش": 5956,
      "##سانه": 5957,
      "استر": 5958,
      "فرات": 5959,
      "نبودم": 5960,
      "شنیدیم": 5961,
      "گرزش": 5962,
      "بمی": 5963,
      "بمابر": 5964,
      "بمکران": 5965,
      "رازی": 5966,
      "خوارست": 5967,
      "خوارمایه": 5968,
      "آنکو": 5969,
      "فراوانش": 5970,
      "هرچه": 5971,
      "روست": 5972,
      "روبه": 5973,
      "سالارشان": 5974,
      "سپهدارشان": 5975,
      "کمانهای": 5976,
      "افسرت": 5977,
      "نیازیم": 5978,
      "تخمی": 5979,
      "خواننده": 5980,
      "اسفندیاری": 5981,
      "پیمانت": 5982,
      "آرزومند": 5983,
      "بیمارستان": 5984,
      "رانده": 5985,
      "##نبه": 5986,
      "بگرسیوز": 5987,
      "کمندافگن": 5988,
      "ننگرید": 5989,
      "نیایدت": 5990,
      "بگردون": 5991,
      "زیور": 5992,
      "کهترند": 5993,
      "گشتاسپی": 5994,
      "شکر": 5995,
      "نخچیرگیر": 5996,
      "مرغی": 5997,
      "هفتم": 5998,
      "نکردست": 5999,
      "نیاویخت": 6000,
      "بتری": 6001,
      "آوریدش": 6002,
      "گرمی": 6003,
      "چوبی": 6004,
      "آمیخت": 6005,
      "نگرود": 6006,
      "هاشان": 6007,
      "سربه": 6008,
      "خوشی": 6009,
      "درفشیدن": 6010,
      "سنانهای": 6011,
      "بکشتم": 6012,
      "تباهی": 6013,
      "آزمون": 6014,
      "بازگردید": 6015,
      "بمردان": 6016,
      "نشناختند": 6017,
      "بشمری": 6018,
      "بشمرند": 6019,
      "امیدم": 6020,
      "برداشتش": 6021,
      "پذیرم": 6022,
      "پذیرفته": 6023,
      "بدویم": 6024,
      "شورش": 6025,
      "شوریده": 6026,
      "بشستند": 6027,
      "بیکبارگی": 6028,
      "سپاسم": 6029,
      "پژمرد": 6030,
      "بخوانیم": 6031,
      "خانگی": 6032,
      "کشانش": 6033,
      "انبار": 6034,
      "کدخدایی": 6035,
      "شبانان": 6036,
      "بایستگی": 6037,
      "مشتاب": 6038,
      "برگذشتی": 6039,
      "بیهش": 6040,
      "بیهوش": 6041,
      "بگذریم": 6042,
      "منزلی": 6043,
      "زندگانیش": 6044,
      "نغن": 6045,
      "ندادی": 6046,
      "غریب": 6047,
      "سرآورد": 6048,
      "بسیچیده": 6049,
      "رانم": 6050,
      "ببالد": 6051,
      "رامشی": 6052,
      "پوشیدگان": 6053,
      "سمنگان": 6054,
      "پروراند": 6055,
      "پزشکی": 6056,
      "بازارگانی": 6057,
      "بخفتان": 6058,
      "برکنند": 6059,
      "برکنیم": 6060,
      "بنشاختند": 6061,
      "تندباد": 6062,
      "جشنی": 6063,
      "نیارند": 6064,
      "بیاموز": 6065,
      "پرسخن": 6066,
      "همرهان": 6067,
      "ستودش": 6068,
      "وکلاه": 6069,
      "بیازرد": 6070,
      "بخشیده": 6071,
      "جفاپیشه": 6072,
      "مپیچ": 6073,
      "نگیریم": 6074,
      "بیچارگان": 6075,
      "بپوشم": 6076,
      "افروختن": 6077,
      "مرزبانی": 6078,
      "تلخی": 6079,
      "نترسم": 6080,
      "ببازار": 6081,
      "سقف": 6082,
      "نسازی": 6083,
      "چکاو": 6084,
      "بتنها": 6085,
      "هوشمندان": 6086,
      "وداد": 6087,
      "رخسارگان": 6088,
      "برگزینی": 6089,
      "وماه": 6090,
      "کباب": 6091,
      "یاورست": 6092,
      "نشنیدی": 6093,
      "جناغ": 6094,
      "پوشیدنیها": 6095,
      "ابوال": 6096,
      "بپیوند": 6097,
      "بنالم": 6098,
      "نشکن": 6099,
      "برگشایم": 6100,
      "ستاننده": 6101,
      "برفرازد": 6102,
      "بازجویی": 6103,
      "سوزن": 6104,
      "گرشاسپ": 6105,
      "پشین": 6106,
      "رسوا": 6107,
      "مرنجان": 6108,
      "##قاسم": 6109,
      "اشتاد": 6110,
      "سحر": 6111,
      "الانان": 6112,
      "پرورانید": 6113,
      "کالبد": 6114,
      "برانگیزم": 6115,
      "سرنامداران": 6116,
      "جندل": 6117,
      "لاغر": 6118,
      "فرتوت": 6119,
      "بپیکار": 6120,
      "برآهخت": 6121,
      "دیوزاد": 6122,
      "زیراندرش": 6123,
      "الکوس": 6124,
      "حیوان": 6125,
      "شبدیز": 6126,
      "فسیله": 6127,
      "ورازاد": 6128,
      "دربدر": 6129,
      "پرهراس": 6130,
      "ابوالقاسم": 6131,
      "بژ": 6132,
      "بوش": 6133,
      "بفرا": 6134,
      "بطوس": 6135,
      "تام": 6136,
      "تگین": 6137,
      "حن": 6138,
      "حال": 6139,
      "حرام": 6140,
      "خاد": 6141,
      "خادم": 6142,
      "ربا": 6143,
      "ردا": 6144,
      "زپ": 6145,
      "زاینده": 6146,
      "عار": 6147,
      "علی": 6148,
      "غندی": 6149,
      "غلت": 6150,
      "فدا": 6151,
      "قبا": 6152,
      "مل": 6153,
      "مص": 6154,
      "نران": 6155,
      "هوی": 6156,
      "وص": 6157,
      "وبا": 6158,
      "ویست": 6159,
      "واف": 6160,
      "ومرد": 6161,
      "واین": 6162,
      "پشم": 6163,
      "پخته": 6164,
      "پنبه": 6165,
      "چم": 6166,
      "چوی": 6167,
      "چاج": 6168,
      "کپی": 6169,
      "##دست": 6170,
      "##ما": 6171,
      "##رش": 6172,
      "##اث": 6173,
      "##کسی": 6174,
      "##نت": 6175,
      "##ناک": 6176,
      "##وست": 6177,
      "##گهر": 6178,
      "##آموز": 6179,
      "##سوز": 6180,
      "##سوده": 6181,
      "##چیست": 6182,
      "##عتی": 6183,
      "##جو": 6184,
      "##طون": 6185,
      "##پشت": 6186,
      "##پاس": 6187,
      "##غن": 6188,
      "##غری": 6189,
      "برامش": 6190,
      "بهایی": 6191,
      "ازار": 6192,
      "##فتم": 6193,
      "همگنان": 6194,
      "##ودانه": 6195,
      "##یرم": 6196,
      "بدون": 6197,
      "بدساز": 6198,
      "راگفت": 6199,
      "چوخور": 6200,
      "##ورن": 6201,
      "بیین": 6202,
      "بیگاه": 6203,
      "بیاسای": 6204,
      "بیاساید": 6205,
      "درت": 6206,
      "درپیش": 6207,
      "گفتست": 6208,
      "اندورن": 6209,
      "سرکشید": 6210,
      "نیایی": 6211,
      "##گرش": 6212,
      "##گرای": 6213,
      "تاوان": 6214,
      "گریغ": 6215,
      "گریزد": 6216,
      "گرزدار": 6217,
      "اندرم": 6218,
      "تواز": 6219,
      "پرز": 6220,
      "پرواز": 6221,
      "پرسند": 6222,
      "دلو": 6223,
      "نامم": 6224,
      "نامدر": 6225,
      "آمدستم": 6226,
      "آمدستی": 6227,
      "جهانبین": 6228,
      "گردند": 6229,
      "##سیچ": 6230,
      "ببستی": 6231,
      "##ازی": 6232,
      "اینجا": 6233,
      "بدوگفت": 6234,
      "روزت": 6235,
      "دوخته": 6236,
      "بخاید": 6237,
      "بخواری": 6238,
      "دستت": 6239,
      "##شیده": 6240,
      "کوب": 6241,
      "کوفته": 6242,
      "بنان": 6243,
      "بنیکی": 6244,
      "بناکام": 6245,
      "جایش": 6246,
      "##ایدش": 6247,
      "گیل": 6248,
      "گیاها": 6249,
      "بادگشت": 6250,
      "بدانند": 6251,
      "بدانستم": 6252,
      "بدانسان": 6253,
      "وزآن": 6254,
      "آبد": 6255,
      "بازن": 6256,
      "بازگوی": 6257,
      "کینست": 6258,
      "بزیست": 6259,
      "دانند": 6260,
      "سیوم": 6261,
      "سیصده": 6262,
      "برانیم": 6263,
      "نشیمن": 6264,
      "کسهای": 6265,
      "نیکنامی": 6266,
      "مهست": 6267,
      "مهین": 6268,
      "بردمد": 6269,
      "بردارم": 6270,
      "تره": 6271,
      "ترسم": 6272,
      "شیراز": 6273,
      "پیراست": 6274,
      "پیرسر": 6275,
      "گواهی": 6276,
      "بکنده": 6277,
      "بسیج": 6278,
      "بسم": 6279,
      "بساید": 6280,
      "کوهست": 6281,
      "بجام": 6282,
      "بجستی": 6283,
      "بروها": 6284,
      "بروبوم": 6285,
      "دهاد": 6286,
      "نخجیر": 6287,
      "برگوی": 6288,
      "برگذر": 6289,
      "نامدارست": 6290,
      "آوردم": 6291,
      "یاددار": 6292,
      "خواستیم": 6293,
      "بفرین": 6294,
      "نوشتی": 6295,
      "بلاها": 6296,
      "یزدانش": 6297,
      "رستمی": 6298,
      "رستمش": 6299,
      "میندیش": 6300,
      "گزیدن": 6301,
      "گویندگان": 6302,
      "دردش": 6303,
      "رخی": 6304,
      "کندر": 6305,
      "کشاور": 6306,
      "کشورا": 6307,
      "سالش": 6308,
      "نگز": 6309,
      "نگشتند": 6310,
      "بایدش": 6311,
      "##هیزد": 6312,
      "بدیبای": 6313,
      "راستش": 6314,
      "زنیم": 6315,
      "شنو": 6316,
      "کلیل": 6317,
      "مهترپرست": 6318,
      "گاهش": 6319,
      "جویای": 6320,
      "سوخت": 6321,
      "##باش": 6322,
      "##کسار": 6323,
      "کافراسیاب": 6324,
      "دینی": 6325,
      "بختش": 6326,
      "موبدش": 6327,
      "برنو": 6328,
      "غمگنان": 6329,
      "##یبهشت": 6330,
      "ارنواز": 6331,
      "داردش": 6332,
      "هوای": 6333,
      "گلرخ": 6334,
      "گلبرگ": 6335,
      "خوابگه": 6336,
      "بپرهیزد": 6337,
      "دشمنم": 6338,
      "برخشنده": 6339,
      "نشانه": 6340,
      "ندرد": 6341,
      "نبودیش": 6342,
      "##نیا": 6343,
      "بتافت": 6344,
      "خوردم": 6345,
      "رازش": 6346,
      "نماندست": 6347,
      "برکرد": 6348,
      "تازانه": 6349,
      "گردنفراز": 6350,
      "گردنکشی": 6351,
      "خوبست": 6352,
      "قیصری": 6353,
      "روغن": 6354,
      "بینیش": 6355,
      "ابروان": 6356,
      "بماندی": 6357,
      "بمانده": 6358,
      "ایدرست": 6359,
      "بستاند": 6360,
      "سپردش": 6361,
      "##گردان": 6362,
      "داستانهای": 6363,
      "نباشدش": 6364,
      "مشکبوی": 6365,
      "فروتر": 6366,
      "فروهل": 6367,
      "رنگین": 6368,
      "درمیان": 6369,
      "افسرم": 6370,
      "نیازرد": 6371,
      "نیازارم": 6372,
      "اردیبهشت": 6373,
      "هیچکس": 6374,
      "##یدونک": 6375,
      "سامان": 6376,
      "دیوبند": 6377,
      "پندش": 6378,
      "##نبرد": 6379,
      "بگروی": 6380,
      "بگرود": 6381,
      "اژدهایی": 6382,
      "سروبن": 6383,
      "بانوی": 6384,
      "بپیچم": 6385,
      "بزرگیش": 6386,
      "بگردی": 6387,
      "بگردش": 6388,
      "بگرداند": 6389,
      "سنگی": 6390,
      "بچگان": 6391,
      "بچیست": 6392,
      "بچرخ": 6393,
      "سبکسار": 6394,
      "سخنهاش": 6395,
      "شکستی": 6396,
      "خواندندش": 6397,
      "بویا": 6398,
      "اسبی": 6399,
      "بیابیم": 6400,
      "برافگن": 6401,
      "نکردیم": 6402,
      "آردت": 6403,
      "پسندش": 6404,
      "نجستی": 6405,
      "نبینیم": 6406,
      "شادمانه": 6407,
      "بترسی": 6408,
      "باژخواه": 6409,
      "مویش": 6410,
      "گهرها": 6411,
      "زخمی": 6412,
      "خورشگر": 6413,
      "خورشهای": 6414,
      "نگردی": 6415,
      "گیریم": 6416,
      "سربخت": 6417,
      "سربپیچ": 6418,
      "زادگان": 6419,
      "خوشه": 6420,
      "خلعتی": 6421,
      "گاوسر": 6422,
      "بارگاهش": 6423,
      "جادوستان": 6424,
      "جاودانه": 6425,
      "چاکران": 6426,
      "کفک": 6427,
      "فرموده": 6428,
      "بمانیم": 6429,
      "نابرده": 6430,
      "نابرید": 6431,
      "##کیمان": 6432,
      "سرخویش": 6433,
      "قلبگه": 6434,
      "بازگردم": 6435,
      "بریدی": 6436,
      "نگاری": 6437,
      "نگارید": 6438,
      "نگاریده": 6439,
      "برته": 6440,
      "پذیری": 6441,
      "سپنجست": 6442,
      "شکارش": 6443,
      "بخوانید": 6444,
      "دریغا": 6445,
      "نمایی": 6446,
      "گذارم": 6447,
      "گذاری": 6448,
      "شبانی": 6449,
      "بیگانگان": 6450,
      "وخوار": 6451,
      "فریبست": 6452,
      "فگندست": 6453,
      "بگذراند": 6454,
      "لهراسپی": 6455,
      "نغنوی": 6456,
      "بینداختی": 6457,
      "دروغست": 6458,
      "فراموش": 6459,
      "حصاری": 6460,
      "پروریده": 6461,
      "برخواندند": 6462,
      "خوردنیها": 6463,
      "افگنند": 6464,
      "افگنیم": 6465,
      "گنبدان": 6466,
      "شیرویه": 6467,
      "بنشاختشان": 6468,
      "مجو": 6469,
      "مجنبید": 6470,
      "مجمر": 6471,
      "پالوده": 6472,
      "نادانی": 6473,
      "خریدی": 6474,
      "بیاموزد": 6475,
      "بگیرید": 6476,
      "اندرآور": 6477,
      "اندرآورد": 6478,
      "بباشی": 6479,
      "برجست": 6480,
      "آرایشست": 6481,
      "پرنیانی": 6482,
      "پرداختم": 6483,
      "گسل": 6484,
      "بربط": 6485,
      "بربسته": 6486,
      "برآرای": 6487,
      "بسودی": 6488,
      "برنگرد": 6489,
      "نترسی": 6490,
      "کنداورست": 6491,
      "اهریمن": 6492,
      "محمد": 6493,
      "محضر": 6494,
      "نسپریم": 6495,
      "چکید": 6496,
      "چکاچ": 6497,
      "بنشاندی": 6498,
      "مغفرش": 6499,
      "بگسلاند": 6500,
      "برآسوده": 6501,
      "سنجه": 6502,
      "مایگان": 6503,
      "ممانید": 6504,
      "نستود": 6505,
      "بربرستان": 6506,
      "نزادی": 6507,
      "سوگواری": 6508,
      "سوگواران": 6509,
      "بفگنی": 6510,
      "نشکنی": 6511,
      "برگشاید": 6512,
      "ستانم": 6513,
      "جریره": 6514,
      "بنویس": 6515,
      "آذرم": 6516,
      "چشیده": 6517,
      "بازآر": 6518,
      "شیون": 6519,
      "ازمیان": 6520,
      "چوآگاه": 6521,
      "بتازیم": 6522,
      "برفرازم": 6523,
      "ربودن": 6524,
      "بیاویختند": 6525,
      "درخورست": 6526,
      "آگندن": 6527,
      "برچکید": 6528,
      "بردباری": 6529,
      "نشمریم": 6530,
      "##ینیه": 6531,
      "دوکدان": 6532,
      "مریزید": 6533,
      "فرمانبری": 6534,
      "خستگیهاش": 6535,
      "نگوییم": 6536,
      "برتافتی": 6537,
      "ابلق": 6538,
      "تکاور": 6539,
      "مشمرید": 6540,
      "پاکدین": 6541,
      "نگذریم": 6542,
      "برنشین": 6543,
      "برخروشید": 6544,
      "نابخردی": 6545,
      "حاجت": 6546,
      "لاجورد": 6547,
      "برآشوفتند": 6548,
      "آدمی": 6549,
      "مسمار": 6550,
      "کشکین": 6551,
      "بسوگند": 6552,
      "برگسل": 6553,
      "اسپهبدان": 6554,
      "بیغاره": 6555,
      "موسیل": 6556,
      "قضا": 6557,
      "##رقند": 6558,
      "بگزارد": 6559,
      "حنظ": 6560,
      "خادمان": 6561,
      "چوخورشید": 6562,
      "کشاورز": 6563,
      "کلیله": 6564,
      "آست": 6565,
      "آستی": 6566,
      "آگهان": 6567,
      "اش": 6568,
      "افر": 6569,
      "بح": 6570,
      "بستم": 6571,
      "بوند": 6572,
      "تل": 6573,
      "تپ": 6574,
      "تبرزین": 6575,
      "جلی": 6576,
      "حکیمان": 6577,
      "خسپ": 6578,
      "رستی": 6579,
      "زگ": 6580,
      "زفت": 6581,
      "زگنج": 6582,
      "زغم": 6583,
      "سگان": 6584,
      "سگسار": 6585,
      "شهان": 6586,
      "طاوس": 6587,
      "طرای": 6588,
      "طغری": 6589,
      "عد": 6590,
      "فاش": 6591,
      "قاد": 6592,
      "مب": 6593,
      "مفر": 6594,
      "ملک": 6595,
      "نشت": 6596,
      "نمد": 6597,
      "نیران": 6598,
      "ناو": 6599,
      "ندر": 6600,
      "ورد": 6601,
      "وسر": 6602,
      "ویند": 6603,
      "وبند": 6604,
      "وبی": 6605,
      "ونهان": 6606,
      "والا": 6607,
      "پشن": 6608,
      "پذرفت": 6609,
      "چگون": 6610,
      "کوشد": 6611,
      "گچ": 6612,
      "گاور": 6613,
      "##یج": 6614,
      "##رزد": 6615,
      "##نو": 6616,
      "##نبان": 6617,
      "##برده": 6618,
      "##ولاد": 6619,
      "##وبی": 6620,
      "##ذیرد": 6621,
      "##گذر": 6622,
      "##آرد": 6623,
      "##آید": 6624,
      "##تا": 6625,
      "##سرد": 6626,
      "##سوار": 6627,
      "##زند": 6628,
      "##زمان": 6629,
      "##عه": 6630,
      "##جنگ": 6631,
      "##طی": 6632,
      "##انک": 6633,
      "##اران": 6634,
      "براسب": 6635,
      "بریزی": 6636,
      "بهای": 6637,
      "بهوش": 6638,
      "بهاست": 6639,
      "بهاری": 6640,
      "##ادار": 6641,
      "ازجهان": 6642,
      "##ویشی": 6643,
      "##ویشتن": 6644,
      "##ودگی": 6645,
      "بدک": 6646,
      "بدور": 6647,
      "بدوش": 6648,
      "بدزد": 6649,
      "بدندی": 6650,
      "بدوزم": 6651,
      "بدآموز": 6652,
      "باشاه": 6653,
      "باآفرین": 6654,
      "بافزون": 6655,
      "چوش": 6656,
      "چوباد": 6657,
      "چوخسرو": 6658,
      "بیمد": 6659,
      "بیورد": 6660,
      "دره": 6661,
      "درواز": 6662,
      "گفتیم": 6663,
      "گفتگوی": 6664,
      "انداز": 6665,
      "یکچند": 6666,
      "سروی": 6667,
      "سرون": 6668,
      "فرسته": 6669,
      "فربه": 6670,
      "فرطوس": 6671,
      "توز": 6672,
      "تواین": 6673,
      "پرشد": 6674,
      "پریست": 6675,
      "پرگزند": 6676,
      "پرفسون": 6677,
      "پروین": 6678,
      "دلشان": 6679,
      "منت": 6680,
      "چنا": 6681,
      "هرجا": 6682,
      "نامزد": 6683,
      "خوک": 6684,
      "خوشتر": 6685,
      "گردیم": 6686,
      "گردگاه": 6687,
      "گرداند": 6688,
      "نهال": 6689,
      "کناد": 6690,
      "ببوی": 6691,
      "ببیشه": 6692,
      "ببسود": 6693,
      "بگشتی": 6694,
      "##شانم": 6695,
      "نبخ": 6696,
      "نبوید": 6697,
      "##فروش": 6698,
      "کارهای": 6699,
      "مردگان": 6700,
      "مردری": 6701,
      "دادت": 6702,
      "دادمان": 6703,
      "##اکرد": 6704,
      "بدوست": 6705,
      "بخرم": 6706,
      "بخشی": 6707,
      "##ترند": 6708,
      "##ترکان": 6709,
      "سخنشان": 6710,
      "جنگشان": 6711,
      "بنای": 6712,
      "بنوش": 6713,
      "بنفرین": 6714,
      "##گانه": 6715,
      "بپال": 6716,
      "بپذیر": 6717,
      "بپیلان": 6718,
      "بپاداش": 6719,
      "بپولاد": 6720,
      "راهمه": 6721,
      "راهمی": 6722,
      "بهرکار": 6723,
      "برآتش": 6724,
      "داروی": 6725,
      "ایرانش": 6726,
      "همانند": 6727,
      "تخته": 6728,
      "مرکز": 6729,
      "باداد": 6730,
      "تنا": 6731,
      "شاددار": 6732,
      "شادتر": 6733,
      "زما": 6734,
      "خرامی": 6735,
      "خرچنگ": 6736,
      "بازوش": 6737,
      "افس": 6738,
      "زرم": 6739,
      "زرسب": 6740,
      "بارانش": 6741,
      "دانسته": 6742,
      "تاجی": 6743,
      "رایی": 6744,
      "برانند": 6745,
      "نشاپور": 6746,
      "سوارست": 6747,
      "فرستش": 6748,
      "فرستمش": 6749,
      "بدینار": 6750,
      "بدینسان": 6751,
      "بردهد": 6752,
      "شیرخوار": 6753,
      "چندگونه": 6754,
      "گوژ": 6755,
      "خونشان": 6756,
      "بکو": 6757,
      "بکوی": 6758,
      "بکاخ": 6759,
      "بسایش": 6760,
      "بسستی": 6761,
      "بسازند": 6762,
      "بجیحون": 6763,
      "##وسخن": 6764,
      "برگفت": 6765,
      "کنونست": 6766,
      "چنانست": 6767,
      "بفرماید": 6768,
      "ستیزه": 6769,
      "بلهرا": 6770,
      "دگرگفت": 6771,
      "زانجا": 6772,
      "مهرت": 6773,
      "مهرست": 6774,
      "گزندی": 6775,
      "بهرامیان": 6776,
      "دردست": 6777,
      "بشناس": 6778,
      "بیارانش": 6779,
      "##هیب": 6780,
      "بدیوار": 6781,
      "راستگوی": 6782,
      "خروشد": 6783,
      "زنش": 6784,
      "ناشک": 6785,
      "نافه": 6786,
      "نشستش": 6787,
      "مهترند": 6788,
      "سوفز": 6789,
      "روشنم": 6790,
      "اسپنوی": 6791,
      "ازینسان": 6792,
      "بختت": 6793,
      "فرمانت": 6794,
      "کامش": 6795,
      "کامشب": 6796,
      "پشتشان": 6797,
      "نبردش": 6798,
      "تیزه": 6799,
      "##کارتر": 6800,
      "زدست": 6801,
      "ارمنی": 6802,
      "تیری": 6803,
      "کلاهش": 6804,
      "دژآگاه": 6805,
      "داشتیم": 6806,
      "بومش": 6807,
      "فرستادن": 6808,
      "ماندست": 6809,
      "ماندیم": 6810,
      "گوهرفروش": 6811,
      "دشمنت": 6812,
      "برخویشتن": 6813,
      "دورست": 6814,
      "فراخت": 6815,
      "بگفتش": 6816,
      "بگفتن": 6817,
      "آیید": 6818,
      "کردارها": 6819,
      "نشانم": 6820,
      "نشانش": 6821,
      "افراسیابش": 6822,
      "بگذارم": 6823,
      "سپهبدش": 6824,
      "گرزست": 6825,
      "جستیم": 6826,
      "بیدارتر": 6827,
      "بیداربخت": 6828,
      "خوردند": 6829,
      "خوردنش": 6830,
      "چرید": 6831,
      "بمرز": 6832,
      "بمرگ": 6833,
      "رازست": 6834,
      "خوارتر": 6835,
      "نماندش": 6836,
      "سرانجمن": 6837,
      "زبانه": 6838,
      "سرایی": 6839,
      "برکوه": 6840,
      "خوبتر": 6841,
      "سازان": 6842,
      "رونده": 6843,
      "مغزم": 6844,
      "دمور": 6845,
      "بستش": 6846,
      "لبت": 6847,
      "سزی": 6848,
      "کمانها": 6849,
      "درازی": 6850,
      "براندی": 6851,
      "مبادم": 6852,
      "مبادش": 6853,
      "نرست": 6854,
      "سودی": 6855,
      "افسران": 6856,
      "برزی": 6857,
      "برزو": 6858,
      "هستیم": 6859,
      "نیازت": 6860,
      "نیازست": 6861,
      "گمانیش": 6862,
      "خوانمت": 6863,
      "پراکنده": 6864,
      "بیماری": 6865,
      "سرافرازی": 6866,
      "سرافرازتر": 6867,
      "گزینی": 6868,
      "گزینان": 6869,
      "گشایند": 6870,
      "آهار": 6871,
      "آهوی": 6872,
      "تبار": 6873,
      "ننگست": 6874,
      "یافتیم": 6875,
      "بزرگیست": 6876,
      "نیایدش": 6877,
      "بدادی": 6878,
      "ببخشی": 6879,
      "گهار": 6880,
      "بدرگه": 6881,
      "بیراه": 6882,
      "بچاه": 6883,
      "کرپاس": 6884,
      "کاخهای": 6885,
      "هندوی": 6886,
      "خواندندیش": 6887,
      "راستیها": 6888,
      "بخواهید": 6889,
      "دامنش": 6890,
      "##آنک": 6891,
      "افگندی": 6892,
      "زهرآب": 6893,
      "وراه": 6894,
      "وراد": 6895,
      "ورنج": 6896,
      "گناهش": 6897,
      "آهنی": 6898,
      "نیاگان": 6899,
      "پیچم": 6900,
      "بزمگه": 6901,
      "نجنبد": 6902,
      "نبینید": 6903,
      "پیکارشان": 6904,
      "پیداست": 6905,
      "بجایست": 6906,
      "رامشگری": 6907,
      "چوبین": 6908,
      "چارسوی": 6909,
      "بپرداخت": 6910,
      "بپرداختی": 6911,
      "بپرداختم": 6912,
      "درودی": 6913,
      "درودش": 6914,
      "بدگهر": 6915,
      "سنانها": 6916,
      "پردانش": 6917,
      "گرازنده": 6918,
      "پیکرست": 6919,
      "بمانید": 6920,
      "نابوده": 6921,
      "##فزایدت": 6922,
      "ارجمندی": 6923,
      "بمردم": 6924,
      "زیانی": 6925,
      "برگزیدی": 6926,
      "برگزیدند": 6927,
      "برداشتم": 6928,
      "پذیرنده": 6929,
      "بدویست": 6930,
      "رهنمونی": 6931,
      "خاستی": 6932,
      "پژو": 6933,
      "گزیدی": 6934,
      "ببخشیدشان": 6935,
      "کردمی": 6936,
      "بابل": 6937,
      "بجستن": 6938,
      "بیگانگی": 6939,
      "آرمت": 6940,
      "فگندن": 6941,
      "پهناش": 6942,
      "برافراختی": 6943,
      "نیکوتر": 6944,
      "بگشتم": 6945,
      "پیوستگان": 6946,
      "بسیچد": 6947,
      "نوشتم": 6948,
      "شتربار": 6949,
      "ببخشاید": 6950,
      "بازگشتم": 6951,
      "سمور": 6952,
      "سمرقند": 6953,
      "نگهدارشان": 6954,
      "پژوهید": 6955,
      "یازم": 6956,
      "پرنهیب": 6957,
      "ننشست": 6958,
      "بسپار": 6959,
      "نارسید": 6960,
      "نیاریم": 6961,
      "گراییدن": 6962,
      "نادل": 6963,
      "اندرزها": 6964,
      "رکاب": 6965,
      "اندرآید": 6966,
      "ناسزاست": 6967,
      "فرومانده": 6968,
      "فروماندند": 6969,
      "سارا": 6970,
      "ساربان": 6971,
      "بیازارد": 6972,
      "مپیمای": 6973,
      "ناکرده": 6974,
      "##وریه": 6975,
      "تیرگیها": 6976,
      "بکندند": 6977,
      "بتوفید": 6978,
      "بپیمای": 6979,
      "عمر": 6980,
      "عموریه": 6981,
      "مگذار": 6982,
      "ریزان": 6983,
      "ریزنده": 6984,
      "میراث": 6985,
      "ببازوی": 6986,
      "بجویند": 6987,
      "بجوییم": 6988,
      "گامزن": 6989,
      "بنشاندم": 6990,
      "برساخت": 6991,
      "نبندم": 6992,
      "برگاشتی": 6993,
      "فسرد": 6994,
      "هلا": 6995,
      "همتا": 6996,
      "کاسفندیار": 6997,
      "نخوانم": 6998,
      "بربری": 6999,
      "بپردازم": 7000,
      "رهاند": 7001,
      "کبوده": 7002,
      "فروشنده": 7003,
      "پیراهنت": 7004,
      "بپیمان": 7005,
      "شخود": 7006,
      "شیرمردی": 7007,
      "ناتندر": 7008,
      "نفرمای": 7009,
      "مخوانید": 7010,
      "نتابید": 7011,
      "برزنم": 7012,
      "آذرا": 7013,
      "خنجرگزاران": 7014,
      "گسارنده": 7015,
      "اندرافگند": 7016,
      "دمیدند": 7017,
      "ربودی": 7018,
      "نشینم": 7019,
      "تندرستی": 7020,
      "رباید": 7021,
      "قفل": 7022,
      "وفاست": 7023,
      "ورزش": 7024,
      "بپویید": 7025,
      "رزین": 7026,
      "برچیند": 7027,
      "خوالیگرش": 7028,
      "گوزن": 7029,
      "فغانیش": 7030,
      "مسوز": 7031,
      "نیوشنده": 7032,
      "ساعد": 7033,
      "بشکنیم": 7034,
      "مزه": 7035,
      "نگسل": 7036,
      "آویزش": 7037,
      "بجنبم": 7038,
      "میازار": 7039,
      "بیفزایدش": 7040,
      "بگلزریون": 7041,
      "شعر": 7042,
      "بکافور": 7043,
      "جاثلیق": 7044,
      "غنیمت": 7045,
      "مترس": 7046,
      "ودانش": 7047,
      "خوبرویان": 7048,
      "رقعه": 7049,
      "بسپرند": 7050,
      "سوگندهای": 7051,
      "ناپارسا": 7052,
      "آبتین": 7053,
      "برنتابد": 7054,
      "سحرگه": 7055,
      "تگینان": 7056,
      "غلتان": 7057,
      "بدونیم": 7058,
      "نامدران": 7059,
      "بازنشن": 7060,
      "سیصدهزار": 7061,
      "چکاچاک": 7062,
      "آذرمهان": 7063,
      "حنظل": 7064,
      "آستین": 7065,
      "جلیل": 7066,
      "طرایف": 7067,
      "قادسی": 7068,
      "چگونست": 7069,
      "سوفزا": 7070,
      "آژد": 7071,
      "آگن": 7072,
      "آختن": 7073,
      "اح": 7074,
      "اوش": 7075,
      "افروزد": 7076,
      "بع": 7077,
      "بص": 7078,
      "بواز": 7079,
      "بفزاید": 7080,
      "تراز": 7081,
      "جف": 7082,
      "جود": 7083,
      "جنبد": 7084,
      "حلب": 7085,
      "دورد": 7086,
      "دایگان": 7087,
      "روش": 7088,
      "ردی": 7089,
      "ریزد": 7090,
      "زهی": 7091,
      "زکار": 7092,
      "زبخت": 7093,
      "زترکان": 7094,
      "سراز": 7095,
      "سوس": 7096,
      "سفند": 7097,
      "شمن": 7098,
      "شگنان": 7099,
      "صح": 7100,
      "صلاب": 7101,
      "طبر": 7102,
      "طبل": 7103,
      "طرخ": 7104,
      "عش": 7105,
      "عز": 7106,
      "عج": 7107,
      "فورد": 7108,
      "فکند": 7109,
      "فسانه": 7110,
      "قم": 7111,
      "قب": 7112,
      "قال": 7113,
      "لف": 7114,
      "لیکن": 7115,
      "مد": 7116,
      "مط": 7117,
      "مث": 7118,
      "مشن": 7119,
      "متاب": 7120,
      "مایست": 7121,
      "نص": 7122,
      "نادر": 7123,
      "هین": 7124,
      "هشته": 7125,
      "وق": 7126,
      "وام": 7127,
      "وگاه": 7128,
      "وشد": 7129,
      "وکار": 7130,
      "ولی": 7131,
      "وبه": 7132,
      "وچون": 7133,
      "ومهر": 7134,
      "ودیگر": 7135,
      "پن": 7136,
      "پویی": 7137,
      "چیم": 7138,
      "چگل": 7139,
      "کنگ": 7140,
      "کوز": 7141,
      "کاب": 7142,
      "کدی": 7143,
      "##افته": 7144,
      "##کل": 7145,
      "##کشت": 7146,
      "##کینه": 7147,
      "##نا": 7148,
      "##ناز": 7149,
      "##بش": 7150,
      "##بغ": 7151,
      "##بخش": 7152,
      "##گو": 7153,
      "##گفته": 7154,
      "##گشای": 7155,
      "##آر": 7156,
      "##آفرید": 7157,
      "##خانه": 7158,
      "##تخت": 7159,
      "##تیم": 7160,
      "##تاز": 7161,
      "##تاج": 7162,
      "##سخن": 7163,
      "##سگان": 7164,
      "##ساله": 7165,
      "##قال": 7166,
      "##زون": 7167,
      "##عر": 7168,
      "##حریر": 7169,
      "##لعت": 7170,
      "##پیک": 7171,
      "##پناه": 7172,
      "##انشی": 7173,
      "##ارز": 7174,
      "##رداز": 7175,
      "برود": 7176,
      "برهان": 7177,
      "براید": 7178,
      "بریخت": 7179,
      "برساز": 7180,
      "برفروز": 7181,
      "##یدا": 7182,
      "##یداد": 7183,
      "##ادرم": 7184,
      "کهنه": 7185,
      "##فتن": 7186,
      "##فتست": 7187,
      "همبر": 7188,
      "همره": 7189,
      "##ویت": 7190,
      "##ویزد": 7191,
      "##ودج": 7192,
      "##امور": 7193,
      "##ایوان": 7194,
      "##یری": 7195,
      "بدد": 7196,
      "بدز": 7197,
      "بدشن": 7198,
      "بداشت": 7199,
      "بداری": 7200,
      "بددل": 7201,
      "بدلت": 7202,
      "باست": 7203,
      "باور": 7204,
      "باتو": 7205,
      "باگهر": 7206,
      "چومن": 7207,
      "چوشاه": 7208,
      "چوشب": 7209,
      "چولشکر": 7210,
      "##وریم": 7211,
      "بیور": 7212,
      "بیفروخت": 7213,
      "بیفروز": 7214,
      "بیاییم": 7215,
      "##نگهی": 7216,
      "##نگیدن": 7217,
      "دربند": 7218,
      "درگنج": 7219,
      "درگرفت": 7220,
      "درنهفت": 7221,
      "پیی": 7222,
      "پیسه": 7223,
      "پیموده": 7224,
      "اندود": 7225,
      "یکدیگر": 7226,
      "شدشان": 7227,
      "سرین": 7228,
      "سرفرا": 7229,
      "سرگرفت": 7230,
      "سرگرای": 7231,
      "فرب": 7232,
      "فروان": 7233,
      "فرزد": 7234,
      "فرمای": 7235,
      "فرغار": 7236,
      "فرانک": 7237,
      "نیند": 7238,
      "نیستم": 7239,
      "نیفگند": 7240,
      "شاهش": 7241,
      "شاهت": 7242,
      "سپاری": 7243,
      "سپیج": 7244,
      "تاش": 7245,
      "تاکه": 7246,
      "گرایی": 7247,
      "بودست": 7248,
      "بودشان": 7249,
      "اندرکشید": 7250,
      "توای": 7251,
      "توزی": 7252,
      "پرش": 7253,
      "پرج": 7254,
      "دلرا": 7255,
      "دلگشای": 7256,
      "آنجای": 7257,
      "مناز": 7258,
      "منال": 7259,
      "منبر": 7260,
      "منوشان": 7261,
      "چنی": 7262,
      "نامدی": 7263,
      "خوید": 7264,
      "جهانا": 7265,
      "جهانست": 7266,
      "گردآفرید": 7267,
      "##یمنی": 7268,
      "نهنگی": 7269,
      "##سیان": 7270,
      "ببیم": 7271,
      "ببهشت": 7272,
      "پیشست": 7273,
      "بگاز": 7274,
      "بگاشت": 7275,
      "کاربند": 7276,
      "کارمنست": 7277,
      "کارکرده": 7278,
      "کاردیده": 7279,
      "مردیست": 7280,
      "دادمی": 7281,
      "دادمت": 7282,
      "بدوبر": 7283,
      "روزم": 7284,
      "دوچ": 7285,
      "دوصد": 7286,
      "دوختند": 7287,
      "دولشکر": 7288,
      "بخفتی": 7289,
      "شهرناز": 7290,
      "گشتش": 7291,
      "چونک": 7292,
      "دیدنش": 7293,
      "دیدمش": 7294,
      "بناد": 7295,
      "بنعل": 7296,
      "##اندم": 7297,
      "##اندان": 7298,
      "بپند": 7299,
      "بپدر": 7300,
      "بپوزش": 7301,
      "راهم": 7302,
      "بهرسو": 7303,
      "همانجا": 7304,
      "مرآن": 7305,
      "بادسار": 7306,
      "تنومند": 7307,
      "##زمای": 7308,
      "آبی": 7309,
      "آبهای": 7310,
      "شادست": 7311,
      "شادیش": 7312,
      "زمهر": 7313,
      "زمستان": 7314,
      "خره": 7315,
      "بازخواه": 7316,
      "بازکش": 7317,
      "##یشی": 7318,
      "کینش": 7319,
      "بزیبد": 7320,
      "خردی": 7321,
      "افکند": 7322,
      "زرق": 7323,
      "زراه": 7324,
      "زرمهر": 7325,
      "بارز": 7326,
      "بارنده": 7327,
      "گنجم": 7328,
      "برانی": 7329,
      "نشیم": 7330,
      "فرستند": 7331,
      "کسش": 7332,
      "کسست": 7333,
      "نیکنام": 7334,
      "نیکوسخن": 7335,
      "بردل": 7336,
      "بردشت": 7337,
      "بردوخت": 7338,
      "خویشش": 7339,
      "زمانم": 7340,
      "گوهرا": 7341,
      "بکاوس": 7342,
      "شمیران": 7343,
      "بسست": 7344,
      "بسیم": 7345,
      "بسالی": 7346,
      "آرمش": 7347,
      "رزمت": 7348,
      "بجوشن": 7349,
      "بروهای": 7350,
      "روانرا": 7351,
      "روانشان": 7352,
      "روانها": 7353,
      "برگیر": 7354,
      "آوردی": 7355,
      "##گیا": 7356,
      "رفتنش": 7357,
      "خواهنده": 7358,
      "ستبر": 7359,
      "بلوج": 7360,
      "بلرزد": 7361,
      "ماهر": 7362,
      "جزان": 7363,
      "جانوشیار": 7364,
      "میستان": 7365,
      "گزندان": 7366,
      "گویان": 7367,
      "دردها": 7368,
      "بشنوم": 7369,
      "بشناختند": 7370,
      "رخشم": 7371,
      "کندن": 7372,
      "کندز": 7373,
      "پایم": 7374,
      "پایکار": 7375,
      "کشتنش": 7376,
      "پاکش": 7377,
      "بیاراید": 7378,
      "بدیوان": 7379,
      "خروشنده": 7380,
      "زنا": 7381,
      "بندم": 7382,
      "بنداخت": 7383,
      "پهلوانست": 7384,
      "کلنگ": 7385,
      "##رزش": 7386,
      "کایران": 7387,
      "ناتن": 7388,
      "نشستنگهی": 7389,
      "خسروست": 7390,
      "مهترم": 7391,
      "جویندگان": 7392,
      "سوختی": 7393,
      "مول": 7394,
      "موکل": 7395,
      "##باغ": 7396,
      "##باشد": 7397,
      "آورش": 7398,
      "روشنش": 7399,
      "کاشکی": 7400,
      "خواندن": 7401,
      "اسپری": 7402,
      "بشنیدم": 7403,
      "پیروزشاه": 7404,
      "بلندیش": 7405,
      "چیزها": 7406,
      "تیزتر": 7407,
      "تیزگوش": 7408,
      "جوانیش": 7409,
      "##تنها": 7410,
      "##کاری": 7411,
      "زدش": 7412,
      "زدندی": 7413,
      "غمخواره": 7414,
      "##یبین": 7415,
      "کلاهی": 7416,
      "دژدار": 7417,
      "دژبان": 7418,
      "خدا": 7419,
      "تنگست": 7420,
      "چنگم": 7421,
      "بیاراستیم": 7422,
      "یافه": 7423,
      "ندیده": 7424,
      "دیگران": 7425,
      "گلفشان": 7426,
      "بومها": 7427,
      "فرستادمش": 7428,
      "فرخی": 7429,
      "گوهرم": 7430,
      "بپرموده": 7431,
      "کمرها": 7432,
      "برخوان": 7433,
      "برخاک": 7434,
      "فرازد": 7435,
      "بتنگ": 7436,
      "گرزها": 7437,
      "جستنش": 7438,
      "خوردش": 7439,
      "مرزی": 7440,
      "چرغ": 7441,
      "بمازندران": 7442,
      "بمژده": 7443,
      "رازشان": 7444,
      "نبات": 7445,
      "نماندت": 7446,
      "نماندند": 7447,
      "آوازشان": 7448,
      "زبانم": 7449,
      "زبانت": 7450,
      "دلیرا": 7451,
      "برکسی": 7452,
      "برکنده": 7453,
      "برکشم": 7454,
      "تازید": 7455,
      "هرچت": 7456,
      "هرچیز": 7457,
      "قیصرست": 7458,
      "شگفتست": 7459,
      "##افگند": 7460,
      "فرازی": 7461,
      "فرازست": 7462,
      "فرازنده": 7463,
      "بپرسیدن": 7464,
      "چهرش": 7465,
      "چهرگان": 7466,
      "##ریق": 7467,
      "فرودین": 7468,
      "لبی": 7469,
      "لبش": 7470,
      "بیاوردم": 7471,
      "داستانست": 7472,
      "نباشدت": 7473,
      "فروبرده": 7474,
      "کمانش": 7475,
      "سیاهی": 7476,
      "نروید": 7477,
      "سودش": 7478,
      "افسرند": 7479,
      "دینارگان": 7480,
      "ویله": 7481,
      "ویسگان": 7482,
      "##ارده": 7483,
      "بیمش": 7484,
      "پنداشتی": 7485,
      "بخشود": 7486,
      "بخشیم": 7487,
      "زردی": 7488,
      "بگرگین": 7489,
      "رزمگاهی": 7490,
      "گزینیم": 7491,
      "درختیست": 7492,
      "مغزت": 7493,
      "بدستور": 7494,
      "بدستوری": 7495,
      "ننگی": 7496,
      "ننگری": 7497,
      "پرخاک": 7498,
      "پرخروش": 7499
    }
  }
}